{"version":"1.0","truncation":null,"padding":null,"added_tokens":[{"id":0,"special":true,"content":"<pad>","single_word":false,"lstrip":false,"rstrip":false,"normalized":false},{"id":1,"special":true,"content":"</s>","single_word":false,"lstrip":false,"rstrip":false,"normalized":false},{"id":2,"special":true,"content":"<unk>","single_word":false,"lstrip":false,"rstrip":false,"normalized":false}],"normalizer":{"type":"Sequence","normalizers":[{"type":"Nmt"},{"type":"NFKC"},{"type":"Replace","pattern":{"Regex":" {2,}"},"content":" "},{"type":"Lowercase"}]},"pre_tokenizer":{"type":"Sequence","pretokenizers":[{"type":"Metaspace","replacement":"▁","add_prefix_space":true},{"type":"Digits","individual_digits":true},{"type":"Punctuation"}]},"post_processor":{"type":"TemplateProcessing","single":[{"Sequence":{"id":"A","type_id":0}},{"SpecialToken":{"id":"</s>","type_id":0}}],"pair":[{"Sequence":{"id":"A","type_id":0}},{"Sequence":{"id":"B","type_id":1}}],"special_tokens":{"</s>":{"id":"</s>","ids":[1],"tokens":["</s>"]}}},"decoder":{"type":"Metaspace","replacement":"▁","add_prefix_space":true},"model":{"type":"Unigram","unk_id":2,"vocab":[["<pad>",0.0],["</s>",0.0],["<unk>",0.0],["▁",-1.985635466355692],[".",-3.2583100656027675],[",",-3.672628234428202],["i",-3.7944141749742],["▁og",-3.805882371823703],["er",-3.8896454920432184],["e",-4.369657810326245],["å",-4.40679208669474],["s",-4.468907131407665],["▁det",-4.4873250682549575],["▁for",-4.515795815921912],["▁til",-4.5742237233313325],["▁av",-4.575750987845979],["▁på",-4.589056193544863],["▁som",-4.594853835321004],["▁med",-4.8555392697460995],["▁en",-4.8719659166858555],["0",-4.899231865323344],["1",-4.899888740422348],["t",-4.9276924185157895],["-",-5.0255948207717935],["▁at",-5.069502171228951],["et",-5.078255394799367],["▁har",-5.12595267762843],["2",-5.20255155038944],["▁de",-5.289471394926972],["r",-5.365309040590159],["n",-5.3806202901978075],["a",-5.4491569684291825],["en",-5.4548982734198415],["▁ikke",-5.4862677245538425],["▁om",-5.539498278270749],["▁vi",-5.540073348686761],["▁den",-5.5899374313581465],["▁jeg",-5.631114994055311],["▁fra",-5.661476343793714],["▁kan",-5.726899085026503],["▁var",-5.78829606546465],["▁du",-5.8008857803788505],["▁ble",-5.831145786601336],[")",-5.893666803524132],["▁men",-5.893990370183211],[":",-5.926417782170006],["▁seg",-5.936274551851989],["3",-5.982677901701594],["(",-6.01017979840536],["5",-6.010482134619286],["▁så",-6.0243411098023145],["o",-6.044714398944137],["9",-6.116648266782162],["d",-6.150961708547326],["4",-6.166109253491845],["▁dette",-6.166244261566501],["▁eller",-6.1794718015650965],["▁også",-6.214111116516063],["▁etter",-6.220337777546492],["m",-6.267055628576436],["▁skal",-6.277600161808472],["g",-6.29853506735194],["▁vil",-6.298803006462936],["▁ut",-6.302767599270679],["8",-6.3203451564541915],["6",-6.327145750525352],["7",-6.344753066461509],["▁ved",-6.389711320718629],["▁noen",-6.438270518243298],["▁han",-6.443987658422898],["ene",-6.449532034148934],["▁opp",-6.50462862709627],["▁være",-6.50700641308717],["!",-6.525436104718429],["▁over",-6.571498305736185],["▁inn",-6.575737251714207],["/",-6.5877070696201425],["\"",-6.598941207729279],["▁alle",-6.603850233506318],["▁noe",-6.614559047077076],["▁andre",-6.617841885888655],["▁hadde",-6.631950335623467],["k",-6.643037505844484],["▁man",-6.655666639971079],["▁da",-6.65695842890406],["▁når",-6.670417428718279],["l",-6.67517015328907],["▁mer",-6.68567890692823],["▁nå",-6.697236345061819],["u",-6.698116892801007],["▁blir",-6.701915487405685],["▁ha",-6.7415066466409],["f",-6.745292626388357],["▁denne",-6.755022997900264],["p",-6.776845089446992],["▁år",-6.78692302397697],["v",-6.798009354212063],["▁selv",-6.806750480176371],["?",-6.811681027584253],["▁her",-6.814362402660031],["–",-6.881533950973042],["▁få",-6.895632198084179],["▁mange",-6.938219099298021],["▁bare",-6.969795103692006],["▁må",-6.973200230458174],["▁to",-6.975311067728523],["▁deg",-6.980379141202002],["▁hun",-6.983162996879756],["▁mot",-7.003453814711449],["h",-7.013674420964625],["b",-7.014714603349418],["▁vært",-7.025776463252811],["▁bli",-7.043412582124205],["▁mye",-7.043914355720629],["▁hva",-7.048559843978184],["»",-7.051103607017238],["«",-7.055553015396475],["▁litt",-7.067962000105933],["▁dating",-7.105970701602214],["▁norge",-7.115181477368321],["▁gjør",-7.120691694570846],["▁flere",-7.123476740718498],["▁slik",-7.126312378454221],["▁før",-7.135043292132432],["▁der",-7.138207811735025],["▁meg",-7.1425805706014405],["▁under",-7.14284319721356],["ing",-7.156881077311912],["▁se",-7.159470338878009],["▁fikk",-7.167898461503576],["▁hvor",-7.190167137569002],["▁gjøre",-7.191255270324765],["▁oss",-7.1942517859052835],["enn",-7.2003501481964545],["▁sin",-7.23003976256123],["▁gjennom",-7.250706180695392],["▁får",-7.276569000261755],["▁ta",-7.277941678280944],["▁dag",-7.2811770720769555],["▁uten",-7.281357265917601],["▁disse",-7.282919433105514],["y",-7.283020375616005],["▁første",-7.304242654716683],["▁både",-7.323298126118319],["▁nye",-7.326167504754531],["▁mellom",-7.333336798535704],["▁siden",-7.333634983063828],["c",-7.346184791147074],["▁kunne",-7.354067062821022],["de",-7.389534681633625],["▁tid",-7.407208456270771],["▁hvordan",-7.451438559759392],["▁helt",-7.452292105564526],["▁igjen",-7.454450268145957],["▁sex",-7.470313405132435],["▁hele",-7.479820953670323],["▁annet",-7.4808802578885185],["▁din",-7.495814358446403],["▁kommer",-7.5211079453308205],["▁sammen",-7.523997766263557],["▁alt",-7.53242796426559],["▁del",-7.533406086258344],["▁god",-7.538092781880774],["▁norsk",-7.559801417844588],["▁stor",-7.56207570387898],["▁oslo",-7.563115049568495],["▁norske",-7.5726329699613295],["▁godt",-7.598238224329329],["▁gang",-7.603114185105666],["▁store",-7.607989842048083],["▁hvis",-7.614284257557783],["▁sier",-7.628179150431585],["▁blant",-7.633025297562154],[";",-7.633384511698509],["▁dem",-7.637318787477398],["▁ned",-7.639801254425146],["ende",-7.64832541267984],["▁gir",-7.652481893371441],["▁ny",-7.666358986101585],["▁samme",-7.672006443346062],["▁viktig",-7.694107071844289],["▁tre",-7.703175720615766],["▁rundt",-7.707350155482738],["▁kom",-7.71219678847546],["▁går",-7.713920045322956],["▁blitt",-7.720532374062669],["▁barn",-7.729075645457179],["▁vår",-7.748023002246981],["▁min",-7.754747303506305],["▁siste",-7.754786347448213],["▁gi",-7.757305286062566],["▁veldig",-7.761152601908657],["▁skulle",-7.762001323762249],["▁bruk",-7.7660468898920705],["▁nok",-7.7789118057818385],["▁finne",-7.781635948430743],["▁sine",-7.789280875899884],["▁ønsker",-7.795113551382917],["▁ser",-7.835459791602924],["▁jo",-7.842764939514357],["▁bruke",-7.848057608920918],["▁våre",-7.8489644661081535],["▁tillegg",-7.854965701926707],["▁derfor",-7.859831468382192],["▁hos",-7.861340715382715],["sk",-7.862075372146475],["vis",-7.870677715932421],["▁dere",-7.871344494265577],["▁gikk",-7.871421197676886],["▁mulig",-7.879655898861619],["▁bedre",-7.885953822912301],["▁beste",-7.887371389099753],["▁mest",-7.890608260471899],["▁gå",-7.908682254626587],["▁grunn",-7.914481669413329],["▁rett",-7.9172851364036525],["▁gratis",-7.921802719674984],["▁hver",-7.927346036748341],["▁tilbake",-7.927413495237008],["▁bruker",-7.928400458919704],["▁frem",-7.941644993840949],["▁ingen",-7.942676406051218],["▁forhold",-7.962587558095398],["▁ulike",-7.965866474235232],["%",-7.968751239431461],["”",-7.971327479547847],["fått",-7.972808057620608],["▁tidligere",-7.972830770594447],["▁bør",-7.985331518458418],["▁kvinner",-7.98796072611853],["x",-7.993287300077506],["▁videre",-7.995661511323268],["▁informasjon",-7.997235235365583],["▁kanskje",-8.001705864086015],["▁tar",-8.00191160791194],["▁viser",-8.01893836962957],["▁sitt",-8.019259004884159],["▁søker",-8.029561263463899],["▁gode",-8.049676292170611],["▁vel",-8.06695980888805],["▁nett",-8.0742364518242],["▁si",-8.081492564438676],["▁folk",-8.087381701433896],["▁mens",-8.087776315056008],["▁fordi",-8.090937140156312],["▁egen",-8.096174564084523],["▁be",-8.104335117043693],["lig",-8.1061040368306],["▁jenter",-8.111632277025853],["▁menn",-8.119707865326296],["▁ville",-8.132133385547718],["▁kjøpe",-8.134144295814451],["▁sett",-8.134346822750963],["▁like",-8.142808071074027],["svært",-8.14514047879048],["▁komme",-8.152498443518152],["ens",-8.163232082154536],["▁helse",-8.175998654927893],["j",-8.187221267907212],["▁eksempel",-8.188422409298225],["▁dersom",-8.191067183003943],["▁hans",-8.194489083231154],["▁ting",-8.197769700516554],["▁the",-8.19913203216117],["▁kjent",-8.20268591814391],["▁finnes",-8.202873137335617],["|",-8.207069317678839],["▁først",-8.207190999539916],["▁bra",-8.208391197860733],["ste",-8.214953955923345],["for",-8.215720819132557],["▁tatt",-8.223037729708565],["▁gjelder",-8.223291430880604],["▁ofte",-8.234722559113546],["▁mindre",-8.239694257691509],["▁la",-8.24506715029815],["▁mat",-8.246935927110242],["'",-8.254165462395408],["▁annen",-8.254709736104108],["▁bilder",-8.254768120463273],["og",-8.259327735765128],["▁måte",-8.276748927127064],["laget",-8.28220032777801],["▁måtte",-8.282288490438155],["▁deres",-8.286838345277634],["▁vet",-8.300523665123842],["▁samt",-8.301631734333977],["▁større",-8.30202101562307],["▁møte",-8.308239699924723],["om",-8.310196241984634],["▁hvert",-8.312703566016589],["▁høy",-8.313185536114066],["▁innen",-8.315529950904226],["▁fortsatt",-8.315729401951346],["▁sa",-8.31656688663563],["▁trenger",-8.317180962966923],["▁side",-8.323305832726009],["▁prosent",-8.331419907716569],["▁løpet",-8.333337364333305],["▁alltid",-8.334097187901893],["▁mennesker",-8.337589114634412],["▁nytt",-8.339107822636128],["▁brukes",-8.344363312725648],["▁kontakt",-8.345223691258637],["▁finner",-8.34969951765896],["▁mål",-8.353870350964787],["arbeidet",-8.354941124689752],["w",-8.358281976779775],["▁små",-8.360819839046291],["▁porno",-8.360941933779568],["▁skole",-8.361224908094652],["▁bidra",-8.363281871512605],["▁pris",-8.363419780084099],["▁resept",-8.36485769587671],["▁ca",-8.367764752016148],["▁bak",-8.36855737499501],["▁kl",-8.374439038946992],["▁gjort",-8.378315500780745],["▁ligger",-8.37934532501873],["▁enkelt",-8.387784548207394],["▁land",-8.394605984185127],["▁viagra",-8.395801856501484],["▁fram",-8.39861583452221],["▁tok",-8.403264571469567],["▁verden",-8.409931434784214],["[",-8.412670928584019],["▁hjelp",-8.414074176013496],["]",-8.415864537166557],["▁står",-8.41822944066673],["▁aldri",-8.425620778733867],["sen",-8.4312752891692],["▁kommune",-8.43163190768943],["al",-8.444218855496842],["▁nord",-8.445300045340419],["▁spesielt",-8.447726170677454],["at",-8.456339658345751],["z",-8.456715601662701],["▁sted",-8.4583815897329],["▁samtidig",-8.463787888843108],["▁vanskelig",-8.463901579648475],["▁neste",-8.46398627735804],["▁følge",-8.469840257100826],["▁tiden",-8.476144095431431],["▁kun",-8.477935267221921],["▁plass",-8.481312453460179],["▁satt",-8.483758130848631],["▁langt",-8.484791646048123],["▁kort",-8.487072937700596],["▁arbeid",-8.48971096722371],["▁lang",-8.496616606443508],["▁vårt",-8.496904003427312],["▁vann",-8.49977334464992],["▁ute",-8.501192866919725],["▁forskjellige",-8.506314450130025],["veien",-8.508485977352338],["▁hatt",-8.509111312581942],["land",-8.51304099798132],["▁kjøp",-8.514001849535726],["▁hoved",-8.517373009632015],["▁legge",-8.521294189849906],["▁by",-8.526928515899629],["tror",-8.526940980040512],["▁norges",-8.532286942832762],["▁kr",-8.53643231524192],["▁lite",-8.536568956442283],["▁allerede",-8.537388793699947],["▁mann",-8.538840206192539],["▁ganger",-8.54169522403213],["▁behov",-8.542516574326232],["gått",-8.542642710068572],["▁fleste",-8.545989518135158],["nes",-8.55616818415201],["▁tur",-8.55849451052694],["▁vei",-8.55994131811126],["▁lett",-8.564210233877468],["▁heller",-8.564839120071506],["▁grad",-8.565990675004517],["▁ett",-8.569370387462893],["▁senere",-8.57566705720561],["▁gjerne",-8.576634880871053],["▁ditt",-8.578069597846945],["▁per",-8.578667461309287],["▁brukt",-8.57921424238549],["▁hjem",-8.580474420522794],["▁dine",-8.582788291110042],["▁liten",-8.587718185859456],["▁dermed",-8.58924442426025],["▁gamle",-8.595326011646156],["▁stort",-8.596381402275522],["▁online",-8.598678052323516],["▁fire",-8.599996608442959],["▁samarbeid",-8.600367359557648],["▁økt",-8.602550052613136],["▁bil",-8.606429844868149],["▁hjelpe",-8.608893184475212],["▁liv",-8.610113571743117],["▁ham",-8.611744548857196],["▁innlegg",-8.61665025827704],["▁krav",-8.620034151323486],["▁faktisk",-8.624269380701124],["▁lov",-8.626647839459686],["▁kroner",-8.631766413022879],["▁dager",-8.634952701886792],["▁dagen",-8.63748827525957],["▁holde",-8.637651091591227],["▁mener",-8.643486810022255],["betyr",-8.643878381223912],["▁gitt",-8.644584613697713],["▁spørsmål",-8.64624359347977],["▁livet",-8.648069355250788],["▁of",-8.648671717336086],["▁rekke",-8.652549114564122],["▁all",-8.661746131098475],["▁kultur",-8.66422228528833],["▁største",-8.665068096382921],["▁likevel",-8.667656074071697],["▁minst",-8.667738264047822],["▁hvilke",-8.67039621928864],["▁lage",-8.670523935375298],["▁virkelig",-8.673468282104333],["▁kvinne",-8.673719790673612],["▁utvikling",-8.676572730905653],["▁lenge",-8.679489550832596],["▁leder",-8.679699428433533],["▁best",-8.682248326647965],["▁spill",-8.68527734147627],["▁nesten",-8.686140014606933],["▁data",-8.687189413895583],["▁sette",-8.687748377123185],["▁slutt",-8.688330603285815],["▁damer",-8.689870070186757],["▁massasje",-8.69689700177034],["▁par",-8.697633444945685],["▁ganske",-8.697861968649272],["▁feil",-8.700871997928067],["▁henne",-8.706761300096453],["ske",-8.708667307821782],["▁sør",-8.711264000088537],["▁sikre",-8.716436501390582],["▁personer",-8.721675355840892],["·",-8.723684828916678],["▁ord",-8.724248030800885],["▁ansatte",-8.724982838786675],["▁felles",-8.725811597181268],["▁jobb",-8.728452970680227],["ingen",-8.730780276505024],["tallet",-8.735526269640541],["▁begge",-8.736906952477474],["het",-8.738393322188768],["▁årene",-8.740769248408537],["▁enda",-8.741073093838411],["▁tjenester",-8.742575705819418],["▁enkelte",-8.745101521361958],["▁særlig",-8.745353464268485],["▁lese",-8.746646410631929],["▁støtte",-8.753578200673227],["▁riktig",-8.756396282936144],["▁lag",-8.75889411536735],["ut",-8.763160768516656],["▁lagt",-8.76423302986712],["us",-8.767636192975658],["▁bilde",-8.767641628880275],["▁egne",-8.768413120496254],["▁video",-8.770428965636052],["▁imidlertid",-8.774412494165132],["lige",-8.781545822156625],["▁saken",-8.785700972300512],["▁vanlig",-8.78720267542546],["▁skjer",-8.787377922221067],["▁egentlig",-8.789015624570386],["▁miljø",-8.789121057097212],["▁slike",-8.79347305479646],["tatt",-8.794270348475267],["▁deler",-8.796653533235538],["▁unge",-8.797830938744958],["▁synes",-8.800301230735064],["▁dårlig",-8.802301756459023],["▁fri",-8.804478263881267],["▁tiltak",-8.805395009572788],["▁ja",-8.80834334998957],["▁bygge",-8.809536561509514],["fritt",-8.809763136536327],["▁hjemme",-8.810596219449756],["cialis",-8.812332182108724],["▁eldre",-8.819262363633625],["▁altså",-8.820503169532344],["▁landet",-8.821090509400072],["▁antall",-8.821425340501769],["&",-8.8225233771539],["▁høyere",-8.822809545741237],["▁utvikle",-8.824875580376053],["▁full",-8.826058276757783],["▁gjorde",-8.828057154942421],["▁stedet",-8.829487097133471],["▁byen",-8.833176734996567],["▁året",-8.835020559647724],["▁prøve",-8.838445132089811],["=",-8.842796242167685],["▁utenfor",-8.844139344812636],["▁bergen",-8.84478660072402],["▁ekstra",-8.845132439822232],["▁vise",-8.846249729165958],["▁nødvendig",-8.847407363250442],["▁hverandre",-8.84777524692585],["▁millioner",-8.84956798570594],["▁mai",-8.851928235198155],["▁form",-8.856936000654759],["▁kunnskap",-8.857159581595784],["▁and",-8.859343359545948],["▁akkurat",-8.85972780970348],["▁fem",-8.862786981672645],["knyttet",-8.86659422339281],["stad",-8.867443541792792],["▁valg",-8.867601890099323],["▁fast",-8.869475467025282],["▁prosjektet",-8.871745744017899],["▁bort",-8.875029584511282],["▁spennende",-8.877854891128127],["▁mine",-8.882024727257953],["▁venner",-8.883309153108996],["▁legger",-8.8833850810852],["▁mulighet",-8.883969062915758],["basert",-8.885859172385363],["▁søke",-8.885877712618683],["▁velge",-8.887648281729852],["▁barna",-8.898605613430528],["▁hennes",-8.898637132007273],["▁innenfor",-8.899892669773447],["▁energi",-8.904710650249044],["▁kvalitet",-8.906399755716631],["eneste",-8.909171714333656],["▁kjærlighet",-8.911428046752768],["▁forteller",-8.916795034564752],["▁tidlig",-8.918763944211223],["▁ifølge",-8.918852990917609],["da",-8.92014952066353],["▁verdens",-8.921842023845564],["▁navn",-8.926448458665245],["▁mitt",-8.93110706489999],["▁penger",-8.93291927218133],["▁skape",-8.934784204809171],["▁film",-8.935706327022679],["▁bolig",-8.93592421881569],["funnet",-8.936258840732021],["▁spille",-8.938620428304985],["▁eget",-8.93937971513478],["▁reise",-8.939385585667383],["▁usa",-8.941594383642247],["▁timer",-8.943469895869091],["holdt",-8.945077411584231],["▁startet",-8.949411851703378],["▁service",-8.950050148383015],["▁rom",-8.950144431096122],["▁tro",-8.9556228854544],["▁lære",-8.956941698596363],["▁klar",-8.960793679987287],["▁musikk",-8.962204699827602],["▁uke",-8.962364580055443],["▁forbindelse",-8.962495500508169],["mer",-8.966272709251978],["▁klart",-8.967712330587656],["▁produksjon",-8.967860774543691],["▁skolen",-8.969039325267058],["▁området",-8.969141760309006],["▁utrolig",-8.971337758123902],["▁foto",-8.971355084078409],["▁deretter",-8.973495525563791],["▁bo",-8.976102070971473],["▁behandling",-8.977735644990727],["ring",-8.97872044761671],["▁åpne",-8.980355580178564],["▁følger",-8.980425865113768],["▁fag",-8.98203237522517],["▁les",-8.983071162866962],["det",-8.983494688494144],["hvem",-8.983953308916167],["▁tenke",-8.986177152722387],["begynte",-8.988754139472785],["▁prosjekt",-8.994458048359574],["▁person",-8.994521897645681],["tok",-8.99634759732476],["▁jente",-8.996492431681272],["den",-8.99674779559187],["▁sak",-8.99997455668238],["▁lys",-9.000044044294112],["▁erfaring",-9.002076908146469],["▁skriver",-9.003123285297498],["“",-9.00367615442415],["▁design",-9.004015984139317],["▁kompetanse",-9.007507930381507],["▁liker",-9.012927836362351],["▁kommunen",-9.017262779598374],["▁tilbud",-9.017289376537274],["▁hvorfor",-9.019150811132548],["▁øke",-9.019910581095484],["håper",-9.020367659669276],["▁dagens",-9.022782710285655],["+",-9.023515649966726],["vi",-9.023970556884567],["▁no",-9.024087788120092],["▁fin",-9.024853265575231],["elig",-9.026154646720547],["▁besøk",-9.029597572913085],["▁forskning",-9.030593498121563],["▁stadig",-9.03323755424247],["▁utdanning",-9.035316027549928],["▁fant",-9.038418460396276],["▁pr",-9.038920813835286],["▁industri",-9.03981618172118],["▁født",-9.040329911047136],["▁jobber",-9.041797732954992],["▁kjøre",-9.043311214673633],["com",-9.043893843958662],["▁ansvar",-9.049389324405189],["▁vekt",-9.049810992180014],["▁høyre",-9.051426912176224],["▁tilgjengelig",-9.053824901770204],["▁kontroll",-9.055792409844008],["▁ferdig",-9.057012510242783],["▁gjennomført",-9.05889332897134],["▁familie",-9.059147923882083],["▁direkte",-9.066765395500193],["▁svar",-9.067822511380424],["▁date",-9.068087949715595],["▁lenger",-9.06927559137434],["▁begynner",-9.069354378079888],["men",-9.070906824308436],["▁voksne",-9.073458423123338],["▁uansett",-9.07445372629238],["▁arbeids",-9.075801788302298],["▁plan",-9.076595977755376],["la",-9.078190180362736],["▁selskapet",-9.079257264990174],["▁medlemmer",-9.07978039118096],["vik",-9.080347042710672],["▁fokus",-9.08098178096309],["▁høyt",-9.083553528372104],["▁chat",-9.083844935676677],["▁holder",-9.086766643739267],["▁skrive",-9.086998228952242],["▁kommet",-9.087525268950976],["▁følgende",-9.08929194319012],["▁takk",-9.092219660716902],["▁gjøres",-9.09724849698484],["man",-9.098486949653113],["imot",-9.098659021375829],["skrevet",-9.10132924177464],["▁fint",-9.102653305671764],["dal",-9.105975178598031],["▁hus",-9.106747839322075],["av",-9.109036551246716],["▁naturlig",-9.10930757277444],["▁delta",-9.109763850345928],["nde",-9.11192154774563],["▁møter",-9.11658927143126],["▁kunst",-9.117080907794064],["tid",-9.119147759946664],["▁inne",-9.119734140335094],["▁råd",-9.119766808467988],["▁forslag",-9.12255680628098],["øy",-9.127678468303088],["▁internett",-9.130979263714991],["▁fjor",-9.132782271524684],["▁skjedd",-9.133822550354592],["▁kjenner",-9.134863642363822],["▁generi",-9.136261399906692],["huset",-9.13659253336692],["*",-9.137286418412366],["▁minutter",-9.138214955534602],["ø",-9.138767820253152],["▁kroppen",-9.139262187330162],["▁single",-9.141054090810991],["viktigste",-9.143658423722757],["eller",-9.144732800848844],["▁fall",-9.14587022028785],["▁kveld",-9.14612157817741],["▁én",-9.14615786306121],["▁tips",-9.148254252117498],["eks",-9.149827381952436],["▁lokale",-9.151706978008889],["perioden",-9.152072219075652],["▁passer",-9.153252102509931],["loven",-9.154248705741066],["▁topp",-9.161249372854291],["▁øvrig",-9.164324853742386],["▁sverige",-9.16436730022247],["▁handler",-9.164614499522685],["▁rette",-9.166665441805982],["▁vurdering",-9.16809411247469],["▁poeng",-9.168306009904784],["ning",-9.1692028449383],["▁politiet",-9.17067266709406],["tur",-9.170950156670756],["▁bestille",-9.172103391666608],["son",-9.173674771291571],["▁utvalg",-9.174211193831358],["▁flott",-9.175095459506036],["som",-9.177989479113457],["siden",-9.179522793043407],["nafil",-9.181004016146208],["▁kjente",-9.181753271518131],["tilbyr",-9.184771505999548],["▁redusere",-9.187152014945609],["▁uker",-9.190002794416156],["saker",-9.1927450372531],["▁endelig",-9.194534978392785],["▁tilgang",-9.197722305478228],["▁innhold",-9.198008526620368],["▁transport",-9.201227188757166],["berg",-9.20306597121716],["▁start",-9.20401728340176],["▁sommer",-9.20414260358664],["▁jobbe",-9.204228347709988],["ly",-9.20446585950511],["▁sist",-9.205214657774343],["▁offentlige",-9.205484819330112],["▁foreldre",-9.206067159943322],["▁klokker",-9.20866943413992],["turen",-9.213186852333507],["▁unngå",-9.21568077418936],["▁spiller",-9.216202787614773],["▁oppnå",-9.217327392958858],["▁nær",-9.217560182286686],["systemet",-9.217855186610848],["▁ski",-9.218630452424197],["▁sosiale",-9.21905407674532],["programmet",-9.221362095922382],["til",-9.221771771899697],["▁muligheten",-9.223849895779464],["▁jan",-9.224561245272367],["▁legg",-9.225189535770646],["markedet",-9.2269365919305],["▁inneholder",-9.228742835959077],["løsninger",-9.229787019756152],["▁gammel",-9.233085238173258],["iske",-9.233276541423006],["over",-9.235027338561007],["▁årets",-9.23597273738029],["▁innlegget",-9.23735691713294],["▁fine",-9.238650400524046],["enten",-9.239350507766003],["▁praksis",-9.239804954346202],["▁raskt",-9.24944027741357],[">",-9.249559438334677],["▁eskorte",-9.249672022615398],["▁vest",-9.25046020344403],["post",-9.252003972110822],["steder",-9.252319407943975],["um",-9.25261323129121],["▁økonomi",-9.253960353250692],["by",-9.255288053047463],["▁salg",-9.25543643529613],["▁trondheim",-9.255658700275635],["▁masse",-9.256249697400856],["utviklet",-9.258019831629197],["ler",-9.26062656330217],["▁vite",-9.264007359123116],["▁lyst",-9.264197465179178],["nemlig",-9.264269245555631],["erne",-9.265750242459644],["▁ønsket",-9.269094719055673],["rommet",-9.269569992581827],["sendt",-9.27028492665669],["▁velger",-9.270348450679071],["il",-9.270544128382],["▁vær",-9.274294695886724],["▁al",-9.275077707104591],["▁fantastisk",-9.275110719980646],["▁bygg",-9.275393156987668],["måten",-9.275814446828308],["else",-9.277219167126717],["▁lørdag",-9.277505870793991],["▁glad",-9.27828642433024],["▁ønske",-9.278524565274555],["▁styret",-9.278551598451498],["▁samlet",-9.279343537484843],["▁nettsteder",-9.28061101238504],["▁viktige",-9.282149302999835],["▁døde",-9.28217325316251],["­",-9.282501147160264],["▁januar",-9.283879941786315],["▁tross",-9.28525024209002],["▁sol",-9.2856067010131],["▁sikkert",-9.288856566354648],["▁bakgrunn",-9.289568616849738],["▁utstyr",-9.291253687509794],["nærmere",-9.293541434137936],["▁olje",-9.293995285453166],["▁fiske",-9.294909119451832],["▁kurs",-9.295763989328432],["▁bor",-9.2991703602359],["▁viste",-9.30010750991082],["ok",-9.300235672852784],["mann",-9.300342457376454],["▁gud",-9.301642750469227],["▁trening",-9.30412076303704],["▁endringer",-9.30503433391247],["▁kirke",-9.306697293786817],["▁tydelig",-9.306699548840642],["▁problemer",-9.30726054515155],["hus",-9.308759771133976],["▁lyd",-9.310069089878873],["lag",-9.310615676948604],["▁hånd",-9.312804245618429],["▁føler",-9.315819649396332],["▁bilen",-9.31584128945316],["▁grunnlag",-9.31664378517656],["▁styrke",-9.321050082567371],["ja",-9.32167226423788],["▁oversikt",-9.321846103643573],["▁kjæreste",-9.322060727651111],["▁foran",-9.32280239990122],["▁internasjonale",-9.323755088519777],["▁områder",-9.3239946412377],["▁midt",-9.32484209099483],["▁sånn",-9.32493746489464],["▁facebook",-9.326619867976577],["gruppen",-9.327608851352691],["▁muligheter",-9.328525804669011],["▁språk",-9.33362717991302],["▁dame",-9.334301105376836],["▁offentlig",-9.335140473442426],["▁valgt",-9.335205778211392],["▁tilby",-9.33626141877122],["▁vant",-9.336357701033489],["▁slett",-9.336779838243617],["▁datingside",-9.337529740804742],["departementet",-9.33815122985864],["▁finn",-9.339874394580884],["▁stavanger",-9.341905840026318],["▁opptatt",-9.342631141284532],["▁barne",-9.342681063261772],["▁tusen",-9.34425625425615],["▁setter",-9.345254326737283],["▁vedtak",-9.34531961481337],["▁bok",-9.346907765930563],["▁billig",-9.34711356596679],["isk",-9.347927345109524],["▁nov",-9.348314819554206],["▁glede",-9.348868959505852],["fra",-9.350062631062894],["lagt",-9.351827936837555],["krever",-9.351985150858438],["▁tak",-9.352507886866931],["▁nivå",-9.352929064698294],["▁snart",-9.353273774551951],["▁selvfølgelig",-9.355102751566648],["▁måneder",-9.35761319405116],["lse",-9.357903293503842],["▁mars",-9.361524735173315],["▁skje",-9.365031239825838],["▁stå",-9.365909796637178],["▁helst",-9.3662316712736],["▁historie",-9.37000851124857],["▁familien",-9.37102351411619],["▁vurdere",-9.372058753910904],["▁kampen",-9.372602134408949],["▁daglig",-9.37346091231165],["▁burde",-9.373568809505809],["’",-9.374657703320969],["▁kart",-9.374902328342406],["▁lille",-9.377137011210086],["▁øst",-9.378154629812473],["▁mor",-9.378493192140244],["▁resten",-9.378619693435535],["▁drift",-9.379180081209723],["▁dele",-9.379437631596517],["▁forsøk",-9.380422833362513],["▁gjen",-9.380943296486436],["▁regjeringen",-9.381296896386742],["▁tema",-9.385437249944909],["▁barnet",-9.386356044407158],["▁september",-9.387936878003226],["▁dra",-9.388071168337447],["ken",-9.39023532363746],["#",-9.39114640107406],["▁bank",-9.393521944055164],["utvikling",-9.393587457423664],["▁natur",-9.393888229230884],["▁trykk",-9.393994320876352],["▁ka",-9.39524468467189],["tjenesten",-9.396525937029248],["▁venstre",-9.396646268819282],["▁stille",-9.396834979485307],["▁ungdom",-9.39761839385393],["▁august",-9.398165441551145],["▁nettopp",-9.39823272503323],["▁super",-9.401327942559464],["▁time",-9.40140399479355],["▁juni",-9.40348044582394],["▁standard",-9.406084189126233],["består",-9.406181402279024],["▁mo",-9.40723427409538],["skap",-9.408024867292417],["▁produkter",-9.41043598942665],["hvilken",-9.410623673277223],["▁avtale",-9.412164289864442],["▁seks",-9.414432138315473],["▁tredje",-9.414904612215569],["▁elevene",-9.415014716514351],["▁betydning",-9.41522732282909],["tiden",-9.41535551404805],["▁gruppe",-9.41674041278132],["▁bildet",-9.419293322919131],["▁hei",-9.421143138449748],["▁free",-9.421602734992945],["▁høsten",-9.422187075025665],["▁tjeneste",-9.42232581876397],["▁båt",-9.422336621010611],["▁fly",-9.42354532457707],["▁dato",-9.424837558913442],["▁april",-9.426404309126772],["▁europa",-9.426463437555698],["▁kamp",-9.429460217882196],["▁resultater",-9.42955765916883],["▁klare",-9.430068470740723],["▁fredag",-9.430911628370197],["▁ledd",-9.432385931369131],["▁november",-9.433124262586428],["▁konkurranse",-9.434937995389276],["▁søndag",-9.43558920279648],["▁di",-9.436495636114026],["▁sto",-9.437320146014784],["▁varme",-9.438047185420212],["▁forrige",-9.43884828553489],["▁jul",-9.438872421686744],["spill",-9.441042736297952],["ka",-9.442191405711176],["▁fotball",-9.44224495081098],["▁far",-9.44341237573196],["▁snakke",-9.446751925351698],["▁klarer",-9.446808623858251],["▁hjelper",-9.447956185242544],["▁stand",-9.449638862289516],["▁klær",-9.450574743901512],["erte",-9.450597818470914],["▁forstå",-9.45089059758643],["ch",-9.452041765639247],["lettere",-9.452260272760595],["▁hensyn",-9.453206536121357],["▁fornøyd",-9.453494325323982],["▁leve",-9.45378587194561],["▁bi",-9.45477256369867],["▁kunder",-9.45822884726124],["▁sjekke",-9.458804529050626],["▁prøver",-9.459745716653142],["▁desember",-9.46114758801477],["▁meter",-9.462272992846184],["▁medier",-9.4638613744649],["▁vist",-9.465430815302255],["▁fjerne",-9.46548292282318],["▁nettstedet",-9.466556049293692],["ha",-9.46830720205842],["▁lærer",-9.468362623433409],["står",-9.470165564621729],["▁alder",-9.471069870257336],["▁ba",-9.472419687016552],["▁virksomhet",-9.472752326433486],["▁alene",-9.47479756069876],["▁søk",-9.475612605663716],["▁endre",-9.47577355681702],["▁gangen",-9.476567647436283],["▁høst",-9.477254564046584],["▁benytte",-9.47798304870457],["▁aller",-9.47866063966306],["▁sider",-9.47967121481539],["▁sende",-9.480073249658926],["▁tenker",-9.481767410339987],["▁nettet",-9.482147258907643],["▁brukere",-9.48466004977571],["utvalget",-9.484685582368137],["▁spillet",-9.487982349871768],["avtalen",-9.488360797826314],["▁målet",-9.489158886513628],["▁sitter",-9.490212763369934],["innebærer",-9.490486545472429],["▁høre",-9.49250547038386],["▁utviklingen",-9.493656917833434],["▁opplysninger",-9.495534562385943],["▁kraft",-9.495924070605644],["▁oppleve",-9.496062325814115],["▁risiko",-9.496518947866887],["▁co",-9.49747376705851],["▁totalt",-9.497565092262375],["▁skade",-9.497623772458876],["▁system",-9.49833261781544],["▁spise",-9.498565667273526],["prisen",-9.498642870895573],["▁fungerer",-9.50157575400817],["▁legges",-9.501834966155732],["▁farge",-9.50384619302264],["▁personlig",-9.504067686544886],["▁lokal",-9.504222095744725],["▁lav",-9.504347396606608],["▁oktober",-9.504546862081728],["▁mannen",-9.50519171816121],["▁godkjent",-9.506032875914771],["▁budsjett",-9.506263649874626],["▁navnet",-9.50740118611686],["▁sexy",-9.507803608856422],["▁oppgaver",-9.508493140647564],["var",-9.508674813437793],["▁telefon",-9.511037038703003],["▁resultat",-9.511826706110307],["▁starte",-9.514290570741794],["▁interesse",-9.515126480466488],["arbeid",-9.515993734759125],["tilfeller",-9.51867824859596],["▁kjempe",-9.518850507037191],["jeg",-9.522970245429915],["ell",-9.523069200067193],["▁inkludert",-9.523070027851784],["▁lar",-9.523585232624995],["området",-9.524499907346518],["▁åpen",-9.525118014488122],["▁bl",-9.527637196966332],["▁nei",-9.52874059587708],["▁uttrykk",-9.529666246032772],["plass",-9.529690817529128],["▁medlem",-9.53052393037116],["▁thai",-9.532147555515836],["▁teknologi",-9.532215909527125],["▁elsker",-9.532519602225005],["▁opplæring",-9.534945755497295],["▁klokke",-9.53498983011262],["▁betale",-9.53508001055894],["▁øker",-9.539424176458658],["▁bygget",-9.54159048903514],["slutten",-9.542002974266085],["§",-9.54230778895731],["▁me",-9.54238989917486],["▁morgen",-9.542463548586287],["▁organisasjoner",-9.543296529640076],["banen",-9.543570335883498],["▁app",-9.54375550603779],["fører",-9.545665536938383],["utgjør",-9.5473779850779],["▁virker",-9.547982225907724],["førte",-9.548677796202387],["▁betydelig",-9.548679609738148],["▁hovedsak",-9.549260748445606],["_",-9.549603606394216],["▁nyheter",-9.551133677855333],["▁avhengig",-9.551237152001148],["▁kjæresten",-9.552592440198922],["▁utføre",-9.55264328532395],["nevnte",-9.5530071734606],["▁flotte",-9.554114880780356],["▁registrert",-9.55502159600418],["▁merke",-9.55738018656438],["▁snø",-9.557808299637797],["▁tekst",-9.559407127912628],["▁filmen",-9.559779189032245],["side",-9.560850183774992],["▁fjell",-9.560898156256073],["satt",-9.56109333088448],["▁høye",-9.562674144507069],["måter",-9.563538335778174],["lengre",-9.563752939093112],["▁elever",-9.566509439744792],["▁dessuten",-9.566884902520712],["▁prosjekter",-9.5684459055447],["▁aktivitet",-9.568456219306077],["▁død",-9.569172849433768],["▁samfunnet",-9.571425160052772],["▁drikke",-9.57182527222188],["▁sørge",-9.572020868211762],["▁bestemt",-9.572736532342688],["▁perfekt",-9.572974046714316],["▁fremst",-9.573639520286791],["▁arbeider",-9.574656135053692],["▁eier",-9.575699402908628],["▁fortsette",-9.576822817714058],["ble",-9.577171017331755],["▁gjennomføre",-9.577336417533106],["dag",-9.578087389329998],["nærmest",-9.579631060371344],["▁langs",-9.580810870382084],["under",-9.580882356277344],["▁skikkelig",-9.581650444868682],["▁søknad",-9.58179531594996],["ling",-9.581852029449047],["▁sammenheng",-9.581963834936282],["▁begynne",-9.58222756708242],["delen",-9.583553180411071],["▁starter",-9.584260976468704],["▁skjul",-9.58729474469344],["▁new",-9.587592133968748],["▁lavere",-9.58903319983241],["the",-9.589131331059216],["rett",-9.589910941808128],["▁kon",-9.59023519974463],["nettapotek",-9.590894251193896],["▁moderne",-9.592510252555904],["▁enkel",-9.592601176618777],["▁type",-9.592627538831277],["▁nasjonal",-9.594148680778533],["▁sentrum",-9.595270119833224],["▁hel",-9.595597290563829],["▁problem",-9.595642569131938],["▁bar",-9.595675078658097],["▁post",-9.597645271660946],["▁sosial",-9.59826293381572],["møtte",-9.598415931248832],["▁sykehus",-9.598975936434798],["ings",-9.599159356745057],["etablert",-9.601463516109844],["▁bloggen",-9.601564627735902],["▁tett",-9.60188135507724],["▁nrk",-9.602163206036462],["▁pro",-9.602735586768876],["▁porn",-9.603145504510168],["▁utfordringer",-9.603514791341883],["▁dro",-9.604063403170386],["▁boken",-9.604108430967308],["▁bøker",-9.604139999803966],["bedrifter",-9.604461360254115],["▁svart",-9.605264595235765],["▁februar",-9.6068801246631],["▁fortelle",-9.607120797565024],["enhver",-9.607264213333831],["▁sukker",-9.608023076439908],["▁slags",-9.60854290373428],["mat",-9.608879411415929],["prosessen",-9.61000478705013],["norge",-9.613177633813203],["▁privat",-9.613650967635598],["▁typer",-9.614708001104791],["▁klima",-9.618301835901276],["▁lo",-9.618384570940483],["▁anlegg",-9.61941300892907],["▁pa",-9.619600892511931],["li",-9.619692099746583],["sjef",-9.620223902895177],["▁utover",-9.621705853602844],["▁lønn",-9.62174901974256],["▁sikkerhet",-9.621776195711282],["tre",-9.62383480041824],["▁brukte",-9.624556471134856],["▁utvide",-9.62478199217469],["▁tall",-9.626135159247582],["▁tilsvarende",-9.626159041981198],["▁osv",-9.626172927532233],["▁kjøpt",-9.626542526374928],["▁lever",-9.628285365333696],["▁nasjonale",-9.630079105045224],["co",-9.630470093252551],["▁makt",-9.630494735772029],["retten",-9.631177220394314],["▁private",-9.632208841461344],["▁naken",-9.633279832710064],["dessverre",-9.633690076741033],["▁kvelden",-9.635282468836728],["▁måned",-9.636189645278256],["▁undersøkelse",-9.636521838100451],["tar",-9.637347873156225],["▁populære",-9.637866433772787],["▁escort",-9.637874748900272],["▁ellers",-9.637994288410924],["▁sjø",-9.63895136082944],["▁kjøper",-9.64106947227856],["▁mar",-9.642024917941184],["▁lange",-9.64240899906108],["▁generelt",-9.64313047182705],["▁luft",-9.644397355313911],["▁kommunene",-9.644895561509086],["les",-9.64531570678893],["▁kreve",-9.6463093638231],["▁forsknings",-9.646895018355178],["undersøkelsen",-9.648240842853724],["▁ber",-9.648770026883568],["▁føre",-9.648989327467469],["enklere",-9.649066476356968],["▁studie",-9.649105310193256],["▁natt",-9.64933868801144],["▁økonomisk",-9.651795692249935],["områdene",-9.652548435457962],["▁rolle",-9.652847569694377],["▁hyggelig",-9.653173164265104],["greit",-9.653388848397356],["▁sagt",-9.6544347377997],["opplever",-9.655794403434038],["med",-9.656254071967226],["▁sikkerhets",-9.656390338894104],["del",-9.656834308835142],["▁inntil",-9.65723800095008],["▁aktiviteter",-9.657816138879223],["▁fremme",-9.65793489139059],["▁unna",-9.658688353092185],["▁oppdatert",-9.659987490861436],["▁brann",-9.661962958625654],["▁jobben",-9.6635672893947],["på",-9.664364611251376],["▁sesong",-9.664404200296888],["opp",-9.664480294169277],["▁spillere",-9.665771881581978],["nummer",-9.666184702990838],["bransjen",-9.66671566926033],["▁styre",-9.667562759840878],["listen",-9.668021623028569],["▁utsatt",-9.668107075736309],["▁juli",-9.66869428393107],["▁forbedre",-9.66932872848458],["é",-9.66937139973126],["▁ansvarlig",-9.67022648950155],["▁enkle",-9.670731212878232],["åpnet",-9.671044953953729],["▁års",-9.671200744285247],["▁overfor",-9.671810515157844],["▁mandag",-9.673008924088547],["▁yngre",-9.673550537029431],["▁sterk",-9.674497497191677],["værende",-9.67472871929903],["▁favoritter",-9.674955173523236],["▁politi",-9.675083095687794],["▁oppfølging",-9.675674957468496],["▁dyr",-9.675863301907956],["▁resultatet",-9.676031181903694],["anlegg",-9.67604635458566],["▁innsats",-9.676829158305356],["nevnt",-9.677915243727806],["▁sønn",-9.678161426445357],["▁jakt",-9.678706467152066],["bruk",-9.67983921063009],["▁formål",-9.680837771476543],["▁trafikk",-9.680902594496017],["▁lager",-9.682028796958036],["asjon",-9.68303475816458],["<",-9.68367587165109],["▁verdi",-9.684299986179315],["▁økonomiske",-9.684929006901234],["▁utgangspunkt",-9.68648369916007],["bu",-9.686623468928993],["▁danmark",-9.686654268535625],["▁driver",-9.68701214364762],["▁smak",-9.687503817523048],["▁test",-9.687859199994223],["ba",-9.688871905215247],["▁vinter",-9.691431526356023],["bar",-9.69283301395339],["vedtatt",-9.693407067510025],["itet",-9.69432272786102],["min",-9.69482350286573],["▁psykisk",-9.696530092199236],["▁klikk",-9.697969012368876],["løp",-9.698004247330935],["▁bildene",-9.698136030531856],["▁ukjent",-9.698501122818708],["▁sterkt",-9.698871335615284],["▁jf",-9.699742438185714],["▁løp",-9.701180802243062],["▁valgte",-9.704204892483988],["ton",-9.704491109551032],["▁vekst",-9.704523931991217],["▁husk",-9.70464779459362],["▁relativ",-9.706836086274024],["utført",-9.707054852244076],["▁sterke",-9.707912941187807],["▁situasjonen",-9.707941612702175],["▁blogg",-9.70897091920884],["▁grunnleggende",-9.70986157620844],["▁gis",-9.71032207043008],["je",-9.712981551495092],["▁hjerte",-9.714613328284903],["▁uken",-9.7156211210612],["▁vakre",-9.718061564526192],["▁klubben",-9.720369481859896],["▁hevd",-9.720876705575646],["▁eventuell",-9.721048036761864],["inn",-9.72152795034184],["▁sykdom",-9.7224432082861],["▁boka",-9.722827902293748],["▁lege",-9.723094686798964],["vanligvis",-9.72486734446836],["kan",-9.724949126096703],["▁ung",-9.725284238658045],["gjort",-9.72551414674708],["▁jobbet",-9.725528109130154],["områder",-9.72611724488139],["▁verktøy",-9.726760575830886],["▁studenter",-9.727863181215277],["▁gutter",-9.728293161931516],["▁tanke",-9.728311480763493],["▁heter",-9.72901153411778],["ist",-9.729312651071544],["▁skrev",-9.729520252270678],["▁sommeren",-9.729599607761047],["▁oppgave",-9.729833664074942],["▁voksen",-9.730000578483873],["▁kjærligheten",-9.731066941002126],["senter",-9.731846393123575],["elle",-9.732561569359978],["▁deilig",-9.734017708311985],["kjøring",-9.73404598615546],["selvsagt",-9.735650023520297],["▁engelsk",-9.73699806536706],["gående",-9.737546881979148],["▁fysisk",-9.737643437605684],["▁strøm",-9.741021435357853],["rike",-9.74181547901437],["▁henhold",-9.741843764048769],["avgjørende",-9.742056174242888],["▁meste",-9.743474342751824],["va",-9.743568635553704],["▁mobil",-9.745654630545047],["rapporten",-9.748132698549767],["▁torsdag",-9.74835896659014],["ytterligere",-9.74959745396863],["feltet",-9.750289905724284],["▁anledning",-9.750916855972015],["▁ungdoms",-9.750966867139176],["▁sikker",-9.751017411640646],["▁absolutt",-9.751216384646533],["▁program",-9.752684780853835],["▁levit",-9.75324589006788],["plan",-9.7553517188843],["▁kjønn",-9.75589452210054],["▁venn",-9.75737614327117],["▁samfunns",-9.758189646401268],["▁jord",-9.758784902136387],["▁skaper",-9.759804231275533],["▁hotell",-9.760150541637906],["▁løsning",-9.760738839291625],["▁google",-9.760998121208702],["går",-9.76152160211329],["▁silde",-9.763734500606224],["▁gøy",-9.76422333835458],["fortsetter",-9.764580255959777],["forholdet",-9.765190294634284],["▁tvil",-9.76539033746499],["▁ingenting",-9.765518519585507],["▁gjenopprett",-9.765556914682431],["nivå",-9.765673540546624],["kk",-9.765751226230556],["▁politiske",-9.766143546214906],["▁ettersom",-9.766448127386235],["sel",-9.766545325211313],["▁eiendom",-9.766829264235907],["▁miste",-9.767789399728375],["▁interessant",-9.76955132949395],["▁stortinget",-9.77048713801709],["stått",-9.771207485732331],["▁opphold",-9.771218863816404],["▁uavhengig",-9.77254108970204],["▁tas",-9.772980077146688],["▁periode",-9.773424947179269],["▁sesongen",-9.774664031551062],["ting",-9.775052850313692],["▁pc",-9.77633632100462],["▁motta",-9.777016017834733],["▁alvorlig",-9.777363898699653],["▁gull",-9.77811119954229],["▁ekte",-9.778320073123895],["▁retning",-9.780780298883704],["resultatene",-9.780963067288628],["ine",-9.7810622390234],["▁regler",-9.782237124404222],["▁videoer",-9.783611942733952],["▁norway",-9.78387094445278],["▁borte",-9.785239443789033],["plassen",-9.785402344922838],["mål",-9.785852714854435],["▁situasjon",-9.78706019972834],["▁kommunikasjon",-9.788757797923],["fri",-9.791233565624514],["one",-9.792736852065866],["omfattende",-9.792883243353325],["▁sp",-9.79302972628616],["liv",-9.79645423543285],["▁casino",-9.796856037400424],["▁nordmenn",-9.797206452046565],["tjenester",-9.79949083368443],["åpner",-9.799516854655955],["▁hundre",-9.799929012408874],["▁team",-9.800117519703331],["▁oppdrag",-9.800817753739008],["▁omtrent",-9.80169581934734],["▁høyeste",-9.80201087040286],["▁historien",-9.802078020338078],["▁fullt",-9.802372707280917],["▁trekke",-9.804377794826395],["▁ho",-9.804564386573052],["▁stein",-9.804616585979415],["▁ivareta",-9.80614552347671],["▁endring",-9.806503548354264],["nett",-9.807154661854568],["søkte",-9.807754823655689],["ina",-9.807963047428638],["▁stund",-9.808296918491711],["aktuelle",-9.810763047725793],["▁bu",-9.810991332722836],["▁amerikanske",-9.811420040521504],["▁klarte",-9.811929961127923],["▁tromsø",-9.811995643416015],["▁kalt",-9.8122107848207],["▁gjenoppretting",-9.812669712315078],["spørsmålet",-9.813087376635751],["▁rød",-9.813368507482082],["leder",-9.814124574738392],["are",-9.81552972380109],["▁trygg",-9.815920302311117],["▁kjører",-9.816898600686534],["▁halv",-9.817225052949947],["selskaper",-9.817270230369576],["▁normalt",-9.81832974330869],["▁område",-9.818406765387929],["▁flyttet",-9.818748231443932],["du",-9.82040586659765],["sider",-9.820672231731995],["▁rask",-9.820930964772698],["▁vold",-9.821805922397662],["▁ma",-9.822094174925793],["gleder",-9.823618495143933],["▁lei",-9.823851014215352],["▁you",-9.824147459650476],["bil",-9.824340721663864],["▁plutselig",-9.826672612402968],["▁opplevelse",-9.826730877371771],["verk",-9.829935208600856],["▁sport",-9.830599360983973],["endret",-9.831797019219453],["nylig",-9.832146492197923],["▁fred",-9.834052787197445],["▁blå",-9.834176194051784],["▁ferie",-9.834735234571085],["▁rimelig",-9.835560000091927],["▁forvente",-9.83566601821592],["mente",-9.83594016207443],["▁skatte",-9.836103553329911],["▁praktisk",-9.836213857816466],["gang",-9.83635231370807],["▁cm",-9.836727070227054],["▁toppen",-9.837186232936975],["årene",-9.837459768515258],["▁forskjell",-9.837786831196231],["edenfor",-9.838085069781362],["▁nyte",-9.83889346739913],["▁web",-9.839384048207265],["ca",-9.839881428477458],["▁effekt",-9.840210894296902],["▁onsdag",-9.840299528421165],["▁stilling",-9.841232168851375],["▁besøke",-9.842921995994557],["circ",-9.844583335715232],["▁butikk",-9.845271511058703],["heldigvis",-9.8457734569511],["▁klasse",-9.846506041546252],["stående",-9.846985038455802],["▁student",-9.850045795417572],["bok",-9.8506004356476],["▁spor",-9.850601228216767],["tte",-9.850649432904088],["▁vesentlig",-9.85115951302665],["hold",-9.851727060486112],["▁with",-9.85177884656503],["▁ekteskap",-9.852485735253788],["▁he",-9.85349328920116],["valg",-9.85354067576874],["vanlige",-9.854414374897091],["▁sentrale",-9.855615025595563],["▁ledelse",-9.856302129219088],["▁menneske",-9.856374480242998],["▁møtet",-9.857253226290624],["▁videregående",-9.85801508942406],["▁grupper",-9.858335541808858],["▁vedlikehold",-9.858761127536347],["stiller",-9.861247751454586],["▁kjøtt",-9.861870992236891],["▁produkt",-9.862282357425777],["ant",-9.862297538730514],["▁politisk",-9.863358554717054],["▁tenkt",-9.863580413185243],["▁nor",-9.864878705792734],["▁spesial",-9.865012245891558],["▁mangler",-9.865489805981346],["▁lik",-9.86560477880252],["▁barnehage",-9.866424650853954],["liggende",-9.868382345896226],["trolig",-9.869033347879268],["▁samfunn",-9.869732481610846],["▁hit",-9.870383525217388],["informasjon",-9.870623549750237],["▁hodet",-9.870995489166614],["▁helhet",-9.871497962737717],["▁forståelse",-9.872767864018524],["▁live",-9.87299859630656],["ledende",-9.873537301777567],["▁faglig",-9.87440223745776],["▁statens",-9.874537597782709],["verdt",-9.875324121172508],["▁okt",-9.87624955232718],["anbefaler",-9.876836459297175],["▁tilstrekkelig",-9.87692654173416],["bestemte",-9.87805291261285],["▁avvik",-9.87852070847686],["▁selskap",-9.87853363141107],["produksjon",-9.87860744437351],["▁gift",-9.879202521987413],["▁tirsdag",-9.879394330217144],["▁foreldrene",-9.879569510990518],["▁slå",-9.880587342925178],["latt",-9.882223734279949],["▁ressurser",-9.882450806382357],["▁mamma",-9.882792939713712],["▁kunde",-9.883451288072774],["turer",-9.883583586356892],["▁vennskap",-9.88407082247704],["russiske",-9.884896445398017],["▁oppmerksomhet",-9.884971456288952],["▁nettsiden",-9.885229795984475],["▁kraftig",-9.887283202462848],["▁pasienter",-9.887698279020965],["problemet",-9.887729400627268],["▁innom",-9.887973784477824],["afil",-9.888596309876982],["▁hardt",-9.889609085911284],["ran",-9.890352942399035],["▁kommuner",-9.890936066561489],["gjeldende",-9.8921588682049],["krigen",-9.892615047502616],["▁utdannings",-9.89276915614412],["▁filmer",-9.895405052959722],["innholdet",-9.896058575924698],["$",-9.896080006432248],["▁kjenne",-9.896173410399298],["▁sykkel",-9.896290453080365],["▁sko",-9.896658759856034],["▁vinne",-9.897756203707084],["stein",-9.89782381689166],["▁sjelden",-9.898912837666185],["▁nettsted",-9.899826385722593],["▁oven",-9.90179182213556],["▁fører",-9.90220773717891],["æ",-9.902825905897366],["▁venter",-9.903732290366738],["prosjektet",-9.90413679395021],["▁aktiv",-9.904358371259304],["kostnader",-9.904851092059223],["benyttes",-9.905412692336853],["▁løpe",-9.905805136845135],["▁fremover",-9.906187741471951],["vist",-9.907370159859536],["▁satte",-9.907920135284533],["▁helgen",-9.9082508106893],["dalen",-9.908806535530877],["anza",-9.90882945693076],["følt",-9.910110442843514],["mar",-9.912025052696771],["tadal",-9.912301316149604],["eventuelt",-9.912739719147782],["▁virksomheten",-9.914869620910723],["▁gjennomføring",-9.91509137919032],["oppdaget",-9.915941066774458],["▁gass",-9.917207855872698],["nærheten",-9.917864817778607],["▁tap",-9.918349529080292],["midler",-9.91967128312851],["tor",-9.919788293759384],["sak",-9.920067332726925],["▁slo",-9.920669780485046],["▁stil",-9.921034408788383],["▁drive",-9.922195642879592],["▁farger",-9.9223476156526],["▁tyskland",-9.923093069257542],["kort",-9.923651429063527],["@",-9.92424762040965],["▁høyde",-9.924361691221332],["▁global",-9.924628246075695],["▁arbeidsgiver",-9.9246375677984],["▁våren",-9.924761150488424],["▁vente",-9.926736004177751],["▁ap",-9.926866605809575],["senteret",-9.927048771845133],["▁so",-9.92950193054574],["myndigheter",-9.930314176447425],["▁reiser",-9.93064141558044],["rik",-9.931020080784323],["kalte",-9.931041323206824],["tjeneste",-9.932657912953273],["lene",-9.93268896620384],["▁jevn",-9.93362476658946],["fremdeles",-9.934150112288052],["▁personlige",-9.934260059956763],["▁fisk",-9.934351995118927],["ikke",-9.934474957892842],["▁unntak",-9.934490907906104],["begynnelsen",-9.934536493094354],["▁lignende",-9.934951099879884],["ny",-9.935116157853624],["system",-9.935583934535188],["▁mill",-9.935658235010548],["este",-9.93589803427646],["▁sand",-9.93661881315702],["▁størrelse",-9.936955328957634],["▁forskrift",-9.939403148989337],["handel",-9.93944257181582],["▁varde",-9.93984107465892],["pass",-9.94153591486796],["redusert",-9.941953928989236],["▁skog",-9.942292471597048],["len",-9.94258589164108],["▁interiør",-9.942605390156531],["▁nordland",-9.94318068144155],["▁inngå",-9.944090593614463],["▁eksempler",-9.944929119976798],["▁jesus",-9.94563599987528],["▁andel",-9.94589817715588],["▁samle",-9.94611696958132],["▁rettigheter",-9.946427257827562],["▁partner",-9.94827836018327],["▁ole",-9.94838736523804],["▁hentet",-9.949582985124524],["▁hotellet",-9.949607645636611],["▁jule",-9.94967991138849],["▁profil",-9.950516283504408],["▁føle",-9.950588169999763],["▁fa",-9.950751494021352],["▁sitte",-9.95104353763694],["▁medisin",-9.951270506878078],["sykdommer",-9.95178250088948],["bare",-9.951889018624708],["pengene",-9.951995287270195],["▁media",-9.95266388476308],["▁selger",-9.953419706830942],["▁jentene",-9.95447185361478],["ang",-9.954825072312705],["▁tråd",-9.955453911645044],["nakne",-9.955514891679147],["▁etablere",-9.956217341653565],["▁arbeide",-9.956565352783825],["sted",-9.956722422833009],["▁effektiv",-9.956846388815432],["pris",-9.956894103368406],["▁vises",-9.956916245553296],["▁fett",-9.956967715590489],["▁nav",-9.957176421350924],["systemer",-9.957262173058696],["interessert",-9.95734927511879],["▁skylde",-9.959388486812657],["▁we",-9.959670417377671],["ff",-9.960589205091976],["▁åpent",-9.960609781882075],["est",-9.96250384069999],["▁spilt",-9.962921064436784],["▁påvirke",-9.963309182064048],["aktører",-9.964314348418185],["▁velkommen",-9.964332169598304],["▁teknisk",-9.965612566643918],["▁levere",-9.965756976343936],["▁foreta",-9.966161724195146],["▁figur",-9.967028242866238],["heim",-9.9679968477157],["spilte",-9.968384117008313],["▁beskjed",-9.968437391081777],["møte",-9.968526433831531],["▁flytte",-9.969445694388767],["▁løse",-9.969454044632991],["▁syn",-9.969663737703783],["tilbud",-9.970516731194843],["behandling",-9.970558395572857],["jon",-9.97116350610029],["ordningen",-9.97238483568186],["▁presentere",-9.972462371038525],["▁mening",-9.97556067101888],["▁alternativ",-9.975755790756436],["▁mc",-9.97646273351721],["jo",-9.977281084027007],["utgangspunktet",-9.977372838941085],["▁informasjonen",-9.977492237900243],["vann",-9.97781219069348],["myndighetene",-9.980432733357777],["▁automatisk",-9.983219217928958],["let",-9.983381991416971],["▁fare",-9.983399319176476],["▁hvit",-9.984561575808751],["rene",-9.985037577267349],["▁glass",-9.985109815036049],["▁internasjonal",-9.98555294777787],["nok",-9.987119043395984],["▁regel",-9.987634371835108],["▁folke",-9.987853038111489],["foreløpig",-9.988261166160123],["erotiske",-9.988811460164188],["tekniske",-9.98998580016834],["▁svenske",-9.99084343339347],["▁inspirasjon",-9.991228339764373],["▁indre",-9.991726176079863],["▁staten",-9.992128647378332],["eksisterende",-9.992208214934582],["snakker",-9.992430306673365],["ør",-9.992640315817772],["▁publikum",-9.992735492143156],["meget",-9.992893525170334],["enes",-9.996103265988028],["spesielle",-9.996242070420015],["▁åtte",-9.99645739725922],["▁mi",-9.996593991024422],["▁planen",-9.99690387591625],["▁organisasjonen",-9.997075914168208],["bøker",-9.99708012224296],["▁hår",-9.997120599826374],["▁sam",-9.997625632975216],["▁flest",-9.998468338307454],["▁viv",-9.999300264542494],["▁befolkningen",-10.000500097146348],["politikk",-10.000539657833292],["grunnlaget",-10.000955358736478],["▁merket",-10.001660331378758],["▁slått",-10.001944632682854],["vær",-10.00208227912846],["valget",-10.002215342980222],["ale",-10.002523557423462],["▁nettverk",-10.002575931922092],["ans",-10.003942878707267],["▁sep",-10.004454269588312],["utgifter",-10.004877407775297],["▁kristne",-10.005295380303762],["▁vannet",-10.005806308380016],["gården",-10.006106370573391],["▁evne",-10.00731253320722],["▁barnehagen",-10.00878903706866],["▁dokumentasjon",-10.009541744057064],["▁blod",-10.009582054626136],["▁favoritt",-10.011016055849533],["kalt",-10.011472112309328],["utstyr",-10.01158367712761],["▁hente",-10.013358363002858],["▁stemme",-10.01339050631126],["up",-10.013876947332513],["▁trene",-10.014003525906448],["▁sjekk",-10.014068392205733],["▁forretnings",-10.014309170159486],["▁digitale",-10.018101576415324],["▁lek",-10.0193428249931],["▁opprettholde",-10.019455258556247],["▁nærings",-10.01978765566793],["▁foreslå",-10.020084371315455],["▁trener",-10.020395317136948],["publisert",-10.020643872623356],["▁handle",-10.020894435922166],["▁internasjonalt",-10.021888377155776],["▁anne",-10.021899677425411],["▁bjørn",-10.022227008190622],["▁kreft",-10.023905004887176],["▁guds",-10.02417216307121],["▁midler",-10.024474679720802],["anlegget",-10.024635681387112],["▁suksess",-10.026169847345528],["forhold",-10.026577930322588],["▁underholdning",-10.027357551841314],["omfatter",-10.027733769197836],["▁tryg",-10.028116230702574],["sten",-10.0291552808007],["fulgt",-10.029608141369303],["▁priser",-10.030033055685566],["pp",-10.030191467580565],["▁felt",-10.030932569529607],["▁spør",-10.031749572119123],["▁håp",-10.03228432038147],["•",-10.033238805885931],["full",-10.033280451941671],["▁con",-10.03374614328491],["▁leser",-10.03394951040993],["▁bransje",-10.034562557555653],["hørt",-10.035113626137765],["forbund",-10.035628319187817],["begynt",-10.036460281418783],["▁melding",-10.036736313085465],["løs",-10.036862659699604],["▁stress",-10.037764865075417],["▁skriftlig",-10.037816772522133],["▁opprettet",-10.038023684666635],["▁nød",-10.038093916105945],["▁igjennom",-10.038712986797757],["▁amatør",-10.039114614857876],["sson",-10.041489083479195],["▁russland",-10.041758743471446],["▁status",-10.04184821310015],["▁spania",-10.042868590033608],["kar",-10.043045265574904],["▁artikkelen",-10.043067747853463],["▁bord",-10.043466831379993],["▁svarte",-10.043664853251787],["▁radio",-10.04382865042328],["begrenset",-10.044798868278464],["ansvaret",-10.04578298211666],["form",-10.046081275311623],["inger",-10.046236114750103],["varer",-10.046523776193908],["▁opprinnelig",-10.046551293974655],["forbundet",-10.046658645494515],["miljøet",-10.047423278918131],["▁kar",-10.049013452158537],["▁trenings",-10.049544933366766],["reglene",-10.04990313841975],["▁rapport",-10.050261983415233],["▁tilskudd",-10.050753119217214],["via",-10.05169137415949],["▁tor",-10.052351467273366],["▁innovasjon",-10.05276926199512],["årlig",-10.053912354433075],["ul",-10.054229787201242],["▁livs",-10.054462335669069],["ord",-10.055406959382568],["▁kjøkken",-10.055685272710772],["erfaringer",-10.055996308093697],["▁papir",-10.056781422972817],["▁besøkt",-10.057062577852118],["data",-10.058210869617744],["▁grunnen",-10.058663395378677],["▁positive",-10.059826303328384],["▁universitetet",-10.060251070813685],["bygg",-10.06089089905328],["regionen",-10.06135862184814],["▁dør",-10.06148837625308],["hjelp",-10.061683691938509],["▁spørre",-10.063083105684814],["dagene",-10.06317938675395],["▁møtt",-10.06352746080257],["▁syns",-10.063654478166493],["▁virke",-10.063945536068529],["hører",-10.06429178498927],["▁motor",-10.06492582103144],["▁nettsider",-10.065651550298238],["verket",-10.066732463667972],["▁utvikler",-10.067157737532094],["▁tanker",-10.06778240457429],["endte",-10.0680697158901],["tenkte",-10.068076426475496],["▁snakk",-10.06808212789181],["solgt",-10.068296064334668],["▁real",-10.068432356310968],["▁frykt",-10.068543978190425],["▁politikk",-10.068769231978523],["▁fyr",-10.069343142625982],["▁samsvar",-10.069792534939523],["▁ex",-10.074467965455272],["gruppe",-10.075428599673891],["▁punkt",-10.076124667118924],["▁hav",-10.07655374515709],["▁etc",-10.077767921262652],["industri",-10.078015083896492],["▁fordel",-10.07865313802378],["▁klubb",-10.0787416931016],["▁gave",-10.07938291149526],["▁nyttig",-10.079668890153602],["fjord",-10.080127774567062],["▁kirken",-10.080300299042404],["▁planer",-10.081753609381597],["▁utnytte",-10.08180935128285],["▁versjon",-10.08184438176265],["krevende",-10.081982167503355],["starten",-10.081991137174349],["▁sentral",-10.08218972213474],["alt",-10.084011894128516],["▁jun",-10.084052571013284],["løse",-10.08426229298584],["behandlet",-10.084269147322011],["▁gjennomføres",-10.085023836461495],["▁total",-10.085396230685014],["▁ben",-10.085582771635478],["etter",-10.086966066531476],["▁nettdating",-10.087419218333018],["ved",-10.0880238925528],["lot",-10.088106776368054],["▁feb",-10.088314575081595],["▁erotisk",-10.088416027467249],["kravene",-10.088633036216091],["▁redd",-10.089380760682356],["▁huske",-10.090365077341168],["lurt",-10.090517220668884],["▁naturen",-10.091068410901403],["vedkommende",-10.09114994741387],["sett",-10.092265822080892],["▁tilfelle",-10.092522238741909],["▁utlandet",-10.093371052983132],["▁vinner",-10.094969704460782],["artikler",-10.095045181260147],["▁falt",-10.095117545170927],["▁berg",-10.09629306945427],["▁sendes",-10.098134067910683],["situasjoner",-10.098896215201531],["▁umulig",-10.098983262425344],["fall",-10.099091713243364],["tilbudet",-10.100626570102156],["▁aktive",-10.10170979510784],["drept",-10.10273001257056],["▁hvite",-10.103000838491509],["▁økning",-10.103045746959776],["▁president",-10.10364312089063],["fjellet",-10.103906907690744],["grupper",-10.104781867736078],["▁kombinasjon",-10.104941497670335],["▁vind",-10.1050935795432],["▁brev",-10.1051494985632],["trodde",-10.105380315108173],["▁relevant",-10.105432835885347],["løsningen",-10.106483916002508],["behovet",-10.108338404491468],["▁velg",-10.111048008417711],["▁retningslinjer",-10.11157845027954],["enheter",-10.11157927076876],["ige",-10.111766413549118],["▁pre",-10.111780727715754],["▁erik",-10.112293702081592],["▁lønns",-10.113529612805374],["▁fritid",-10.114941746910391],["skole",-10.115286372063832],["▁fest",-10.115846912368534],["▁alkohol",-10.1163285228705],["▁london",-10.116527420182742],["biler",-10.117754982308798],["▁nasjonalt",-10.118068802734602],["▁unik",-10.118337638448704],["avdelingen",-10.118657601392348],["etterhvert",-10.119449978900452],["▁oppstå",-10.119870981806772],["tall",-10.119980440603854],["▁parti",-10.120396255926265],["▁selge",-10.12121613446818],["▁godkjenning",-10.121298683077852],["studentene",-10.121889585731925],["▁klokken",-10.121951666865764],["åringen",-10.122143526599018],["▁lands",-10.122263042893344],["▁bø",-10.122398396453876],["isme",-10.122438726428523],["virksomhet",-10.122516815948565],["▁finans",-10.12349380084373],["tilpasset",-10.123831115860652],["brukerne",-10.123869653969438],["produksjonen",-10.12420129466655],["▁john",-10.12423681483133],["▁studier",-10.124289288255946],["sjon",-10.124613440231764],["vurdert",-10.124703117859124],["felt",-10.124812460758818],["bøkene",-10.12506005285873],["▁annerledes",-10.125883533619373],["modellen",-10.126925057491466],["faren",-10.126986620685988],["▁funksjon",-10.1272192945193],["▁drifts",-10.12758908679903],["▁rent",-10.128320686072472],["her",-10.128542017303488],["har",-10.128820265572816],["▁sky",-10.128835877631786],["▁tegn",-10.128961524404724],["▁rus",-10.129270684637884],["▁snakket",-10.130493115214705],["▁kristen",-10.130538588781995],["date",-10.131155550167174],["ikk",-10.132290532629463],["▁match",-10.13263071012803],["hindre",-10.133058765894086],["▁røde",-10.13391112781462],["▁lars",-10.134433972151667],["mark",-10.134685661208984],["▁tidspunkt",-10.134960166551387],["▁kaffe",-10.13519374465876],["▁tom",-10.13541729988922],["bilder",-10.136164018732018],["fylt",-10.138656906472566],["umiddelbart",-10.138983648704532],["▁interesser",-10.139287580772974],["▁runde",-10.139783538192235],["later",-10.140135261532423],["▁hud",-10.140658718983923],["europeiske",-10.14152077449512],["han",-10.14156552637414],["▁etterpå",-10.141866349724598],["▁delt",-10.141893764209469],["øya",-10.142310648263305],["▁omgang",-10.142729981701414],["▁tilfeldig",-10.142934598537146],["▁forbi",-10.142991148166296],["▁funksjoner",-10.143020093227324],["▁trinn",-10.14338209524557],["▁serie",-10.1440726837012],["planlagt",-10.144641019444046],["▁faste",-10.14652355098612],["▁fremtiden",-10.147080793195334],["▁frist",-10.14804516393141],["▁respekt",-10.14853604387482],["▁forsikring",-10.149670324676938],["▁vekk",-10.15001717157429],["kjørte",-10.152205893422018],["▁settes",-10.152556428377531],["▁opprette",-10.152579156359709],["▁minne",-10.152923693282814],["foreningen",-10.153349878721537],["øynene",-10.15353696438375],["plassert",-10.153840369913494],["▁smart",-10.153921843546176],["uk",-10.154768469944807],["▁verdier",-10.155308217867384],["▁veiledning",-10.155937770446792],["▁læring",-10.156033988238663],["▁treff",-10.156405033657927],["bb",-10.156537759718812],["▁svensk",-10.15693700790984],["▁detalj",-10.157072949120035],["ført",-10.157108305843668],["produkter",-10.15777914658762],["kurset",-10.159054922987568],["▁aug",-10.159482687660343],["kjøpte",-10.16021975595748],["▁våpen",-10.160786546881058],["▁aktivt",-10.161318092538774],["▁seier",-10.161515009886894],["▁spesiell",-10.161814055414816],["▁nettbutikk",-10.16195460436621],["▁lest",-10.162369570247623],["ledelsen",-10.163843780248476],["age",-10.16396814740538],["▁positiv",-10.164191602557404],["ordet",-10.165087812621827],["▁my",-10.165186187934738],["▁skader",-10.165451439399911],["q",-10.165740012748584],["medlemmene",-10.165850217222234],["▁skjønnhet",-10.165869452477985],["▁ligge",-10.166407647013717],["▁benytt",-10.166502131244062],["tro",-10.166512809707651],["▁øye",-10.166787298777203],["økende",-10.167012303233774],["leg",-10.16731451444983],["visste",-10.167924091703616],["▁milliarder",-10.16805191454201],["program",-10.168122275101124],["▁kontor",-10.16826190016217],["produsert",-10.170336481955148],["fantastiske",-10.170449838565212],["ikt",-10.17098403133094],["▁relasjoner",-10.171049318647484],["▁plast",-10.172440646748392],["▁bro",-10.17249692758218],["råd",-10.17288077479266],["▁positivt",-10.17316032919638],["▁markeds",-10.17408716799429],["▁stemmer",-10.174126406548735],["folk",-10.174998397430194],["▁van",-10.175035736938604],["▁kontaktannonser",-10.17569208474693],["ll",-10.176175666921491],["▁nydelig",-10.176737636173144],["▁omkring",-10.177931586960456],["▁grønn",-10.178230036022637],["▁forskjellig",-10.178360647363036],["▁avdeling",-10.179217503034376],["▁prosess",-10.179824380573288],["▁frukt",-10.18036958225056],["▁fullstendig",-10.180904834977968],["▁minste",-10.181422185180285],["sta",-10.181439137416609],["▁organisasjon",-10.182646061621805],["▁håndtere",-10.183044326461165],["opplevd",-10.183836107579811],["▁sender",-10.18411818850896],["▁gate",-10.184120046529944],["▁gjenta",-10.184215552161564],["▁lykkes",-10.1843058261617],["▁anti",-10.184611188536952],["syn",-10.1846736616489],["preget",-10.18485928103404],["gruppa",-10.185188489760248],["▁skoler",-10.185368743485446],["nivået",-10.18552187402427],["▁senior",-10.186069810260731],["▁art",-10.186665565718856],["havet",-10.18728673181316],["▁tapt",-10.187512836429578],["▁former",-10.187544956152246],["▁underveis",-10.187901253222549],["▁butikken",-10.19020606231102],["▁salt",-10.190286127518997],["rutiner",-10.190451120507824],["dagen",-10.190528647794965],["▁institutt",-10.190597479951146],["slår",-10.19265596670103],["bodde",-10.193332083680366],["▁planlegging",-10.193724099395228],["▁kunnskaps",-10.193889072919154],["▁region",-10.193896318000723],["▁treffe",-10.194417941921506],["område",-10.19504665136702],["▁erotikk",-10.19545178004914],["årsaken",-10.195454519136817],["ation",-10.196884391093535],["▁artikkel",-10.197214140469203],["▁tradisjonelle",-10.197782204228998],["▁nytte",-10.19867254657989],["▁kor",-10.198742981456313],["▁datingsider",-10.1987976490079],["rådet",-10.199043753950203],["følelser",-10.200074011949008],["komiteen",-10.20136788087753],["▁støtter",-10.2014453138179],["▁levert",-10.201731741812536],["▁farlig",-10.202456863856913],["dvs",-10.202617513268883],["haug",-10.20262247592487],["tak",-10.203324872271612],["▁hen",-10.20338237512582],["partiet",-10.203863768803512],["▁bytte",-10.203876687607242],["▁sang",-10.204034116689185],["▁hverdagen",-10.20410179055584],["▁salgs",-10.20443175878753],["▁eks",-10.204461272454266],["navn",-10.204834673536068],["▁leie",-10.205026612531318],["▁england",-10.205241812380336],["kon",-10.20563446817562],["▁innbyggere",-10.20611583171186],["▁debatt",-10.20764353562282],["▁sær",-10.208159178109806],["kle",-10.20844915274662],["▁lover",-10.208809173524337],["ana",-10.208973881975558],["▁kina",-10.209127124137677],["▁undersøkelser",-10.20931043765236],["kontroll",-10.209516927326666],["▁logistikk",-10.20958611279611],["▁sannsynlig",-10.210663413860985],["ntb",-10.210874942069651],["▁penis",-10.211300599812724],["▁spare",-10.211804705901226],["itt",-10.21276486129836],["gikk",-10.212828774193458],["▁xxx",-10.21379474486666],["▁tyske",-10.21423784376333],["manglende",-10.214756643758896],["▁kristiansand",-10.215143770002957],["▁mangel",-10.215601936009168],["▁nødvendige",-10.216119991315235],["▁kapittel",-10.216415685403948],["▁kvinnen",-10.216490856975312],["▁partene",-10.21688232081784],["▁kalles",-10.216917612548915],["vern",-10.21753619606632],["kurs",-10.218258382182794],["▁gutt",-10.218698735956783],["▁tids",-10.218936867682071],["▁dialog",-10.22038790940062],["▁arkiv",-10.22175050405698],["▁helg",-10.222130496095255],["menn",-10.22231300556951],["—",-10.222766486169249],["▁idretts",-10.223394834089095],["▁q",-10.223634371517958],["▁skyld",-10.2238651629164],["▁slippe",-10.224139214686632],["▁idag",-10.224337330740576],["båten",-10.22440075739708],["▁opplevelser",-10.22450895892822],["mor",-10.22506218611167],["▁personen",-10.225397049271796],["▁unn",-10.225974880877535],["▁håndverk",-10.22643914884323],["▁presse",-10.226521500396744],["▁middag",-10.226623343199986],["▁yrkes",-10.227445486234782],["▁ledere",-10.227545336565475],["▁ferd",-10.22781485827169],["▁kunden",-10.228281374042188],["heten",-10.229431706774369],["▁dekke",-10.229501088235134],["▁inntrykk",-10.229682031325082],["forskning",-10.230047044678082],["▁lån",-10.230240796079595],["lin",-10.230743200906996],["▁sent",-10.230917791805968],["▁sikt",-10.231007012999443],["uten",-10.231126187587453],["inkluderer",-10.231129583253054],["▁forsiktig",-10.231388799444815],["▁fitte",-10.23163593462449],["▁lokalt",-10.23172874653758],["▁dikt",-10.231757499169197],["▁strategi",-10.232794389480093],["▁frisk",-10.23322904720451],["nøye",-10.233550248813406],["▁kvalitets",-10.235151235924894],["▁produksjons",-10.235445960467697],["▁bakken",-10.235888777285302],["▁rør",-10.236540778636838],["samarbeidet",-10.236822800216183],["▁knut",-10.236925061788485],["deltakerne",-10.237635256139235],["▁oppgaven",-10.238057167771489],["▁solid",-10.238088105499278],["huden",-10.240413375560337],["sannsynligvis",-10.240532042813337],["bedriften",-10.24085824875862],["ær",-10.241058129336311],["▁bonus",-10.241074470984662],["▁rolig",-10.241261019240904],["▁ytre",-10.242025669490602],["▁hold",-10.242169352158587],["▁bygger",-10.242797725565046],["▁leverer",-10.243202885930224],["vel",-10.243634442612755],["▁dagbladet",-10.243726742773871],["▁analyse",-10.243954038803556],["▁sektor",-10.244362364666127],["tal",-10.244374483957326],["barn",-10.24472420227807],["▁christian",-10.24479337395928],["▁skaffe",-10.24911969044199],["kommende",-10.24948142187682],["benyttet",-10.250396436054144],["▁lærere",-10.252099848083292],["forholdene",-10.252856081291808],["fortalte",-10.253276636759482],["▁annonser",-10.25398794809307],["▁vedlegg",-10.254027121562922],["faglige",-10.25425659596762],["▁kjære",-10.25544264312104],["trening",-10.255560029296326],["mon",-10.256133232464062],["▁dyre",-10.256135255288791],["livet",-10.256944972635546],["▁passe",-10.257119070802943],["▁liste",-10.257621077894978],["tallene",-10.258858174680023],["▁foreligg",-10.258997781597223],["▁kamper",-10.260632673916854],["▁forklare",-10.261230053005995],["▁sms",-10.262098089069632],["▁stod",-10.262691281158723],["▁behandle",-10.263090973945774],["somme",-10.263837481325028],["▁forstår",-10.264086347915985],["▁datter",-10.264721741025136],["▁motsatt",-10.26501169674962],["▁svare",-10.26508660180965],["▁sentralt",-10.2653543777177],["▁materiale",-10.265681494005364],["▁frankrike",-10.266198481852843],["▁posisjon",-10.26658984024562],["isering",-10.266625276565666],["▁buss",-10.2673175025044],["▁ansatt",-10.269578384256612],["▁kategorier",-10.269729064291289],["▁enig",-10.270403874245655],["klubb",-10.27046481543064],["vidt",-10.270772022328716],["▁akershus",-10.270924906991318],["stillinger",-10.27145816995784],["▁hage",-10.27157828728742],["▁evaluering",-10.27165060439263],["bestemmelser",-10.271870746409974],["▁oppmerksom",-10.273059362527365],["▁slag",-10.273688436335862],["slag",-10.274349672885318],["selskapet",-10.274443943748553],["kundene",-10.274689841057592],["▁landbruk",-10.275026516007731],["▁singel",-10.275424063836873],["▁apr",-10.275452361799736],["▁nummer",-10.275770753983842],["▁innspill",-10.275820686204824],["forslaget",-10.27582322206944],["▁blomster",-10.276977620265752],["utgitt",-10.277152145239954],["▁åpenbar",-10.279136720815496],["liste",-10.279140907208934],["▁kjøretøy",-10.27972696952066],["▁anders",-10.280494493303957],["▁israel",-10.28280522691198],["kvaliteten",-10.283193172389794],["dyr",-10.283739308311484],["søk",-10.28414539364359],["▁koselig",-10.284190667598976],["and",-10.2842227732012],["▁melde",-10.284228306874027],["▁digital",-10.285550696387698],["▁inter",-10.285690126225566],["formålet",-10.287359935631448],["sterkere",-10.287713892315002],["our",-10.287829755112949],["enheten",-10.288221572474304],["▁norwegian",-10.2882525387418],["visst",-10.288275257654892],["meldinger",-10.288282624243484],["▁tillatelse",-10.288513243217334],["bordet",-10.289529929448952],["▁modell",-10.289847037462753],["prosjekt",-10.289954240700656],["▁trans",-10.290178110572068],["▁ressurs",-10.29042475891741],["▁veier",-10.290656681612464],["▁po",-10.291292713913869],["▁enhet",-10.291388823203258],["▁stål",-10.291524507635923],["sjøen",-10.29289923592403],["fag",-10.293049933614052],["▁stats",-10.293244533017187],["fjorden",-10.293802762300384],["▁fylle",-10.29392252755024],["▁informasjons",-10.294356195132172],["▁drammen",-10.294490893699397],["▁kjørt",-10.294644011914452],["▁bla",-10.294838589899028],["selskapene",-10.295047140873445],["▁moro",-10.295073823201774],["foreninger",-10.295454498878124],["▁ferdigheter",-10.296466868743543],["sektoren",-10.296969310741948],["▁tabell",-10.297017341022874],["▁leke",-10.297634319657467],["ck",-10.29869249572122],["▁professor",-10.298980969048946],["løpet",-10.299125371432684],["org",-10.299276597423145],["▁utmerket",-10.299390456037044],["opptil",-10.300125772605776],["▁verken",-10.300405132501892],["serien",-10.300487865912547],["pga",-10.302008265691992],["▁kommentarer",-10.30221951723001],["eide",-10.303258252484834],["▁egg",-10.306076187601173],["▁kilde",-10.30626759313972],["andelen",-10.306582895147718],["▁beskrivelse",-10.306635038567842],["vondt",-10.307159125749472],["▁viss",-10.307866649902754],["▁konsekvenser",-10.307915216463469],["lov",-10.308934570568791],["▁martin",-10.309185045073798],["▁kropp",-10.309416574671264],["▁fungere",-10.309437595561915],["▁veg",-10.30953982790414],["▁registrering",-10.309551695987048],["▁jenta",-10.310548570827809],["▁bredt",-10.311223259025647],["▁york",-10.311327162218646],["▁tillate",-10.311373504187053],["▁skille",-10.312026208388485],["lurer",-10.312175766116168],["▁engasjement",-10.312231297872565],["▁angrep",-10.312515586721537],["▁utforske",-10.312989758341232],["▁bidrag",-10.313071846302552],["▁vilkår",-10.313387447840466],["▁pappa",-10.314139042014496],["▁litteratur",-10.314740278328422],["▁pasient",-10.315321369942207],["likevel",-10.31571784938188],["▁forfatter",-10.316104545902988],["ennå",-10.31711117719013],["▁grei",-10.317602861164788],["trukket",-10.317824557217628],["▁oppgi",-10.318225426186348],["befinn",-10.318896172864951],["king",-10.319086091099916],["kravet",-10.319109241679014],["▁dobbelt",-10.319363624295896],["fisk",-10.320617084164434],["▁band",-10.321518627542964],["ity",-10.321975060978962],["opplysningene",-10.322022430198809],["▁arne",-10.322093303787527],["▁kaller",-10.3248368236081],["▁kamera",-10.325650460157544],["avsluttet",-10.32646660052093],["▁egenskaper",-10.326638959124796],["skolen",-10.326789616738951],["▁besøkende",-10.327117883608278],["▁lu",-10.327200219274186],["lys",-10.327481177828751],["▁bunn",-10.32754421948422],["▁deltakere",-10.32799906496207],["▁utviklings",-10.32829115042375],["fulle",-10.3282912341062],["▁typen",-10.329068237591589],["spillerne",-10.329342543792302],["▁vinteren",-10.32946278824458],["representerer",-10.329554773840613],["produktene",-10.329649757015243],["ideer",-10.330126571548623],["sykdommen",-10.330924841282805],["riktige",-10.331467863620349],["støtte",-10.33169795332611],["slipper",-10.332396044080587],["▁su",-10.33433397529896],["▁fart",-10.334344636630396],["▁restaurant",-10.334540490812657],["▁faller",-10.334617615215832],["kommunale",-10.334828087710736],["▁herlig",-10.334868885979256],["▁måle",-10.33544678114978],["drevet",-10.335957274167262],["▁dyp",-10.336262353412383],["løsning",-10.33692650966218],["▁lykke",-10.337046152675162],["beskrevet",-10.337155943534118],["stilte",-10.337364806011552],["landene",-10.3381972491148],["vei",-10.338684883851728],["▁karakter",-10.338957840516883],["hørte",-10.340022852820788],["▁medie",-10.34059648849538],["▁tale",-10.3407692069706],["▁gjennomgang",-10.341244777496645],["▁forskere",-10.341893484575111],["▁paul",-10.34211671735176],["▁erstatte",-10.3421752973041],["kraft",-10.342459397990408],["▁sølv",-10.342593836949034],["ö",-10.343192984273928],["▁nøyaktig",-10.343221847428554],["▁melder",-10.34359984261182],["forskjellen",-10.34378378601902],["▁normal",-10.346295918828684],["økte",-10.34629630976079],["eres",-10.34694179403578],["▁medlems",-10.347307661794964],["▁undervisning",-10.347658869817554],["borg",-10.347733077095237],["▁grader",-10.347779087578065],["▁maten",-10.348039795932827],["▁serien",-10.348706696692126],["▁syk",-10.349056337747571],["▁galt",-10.350419783269686],["▁oppdatere",-10.350661826318872],["▁linje",-10.35125318202202],["▁tvers",-10.351339668611628],["▁fjerde",-10.35148606340903],["▁medarbeidere",-10.351644288128035],["elementer",-10.352134750541772],["▁metoder",-10.352465266081689],["sund",-10.352574713591844],["▁kors",-10.352743386828452],["▁ledet",-10.353141879509812],["▁bad",-10.354122027959807],["▁nevne",-10.35467978786565],["▁motsetning",-10.355012644489436],["▁sunn",-10.355627859292898],["▁levende",-10.356521147942],["fjell",-10.357036488049426],["ley",-10.357411359974146],["ledes",-10.35755477343874],["▁pasienten",-10.35788954256415],["▁bred",-10.357993164448844],["▁klage",-10.357994411225398],["▁arrangere",-10.35808429717699],["▁stoppe",-10.358095452901162],["art",-10.35879550925769],["▁ventet",-10.359034240407892],["søknaden",-10.35952572035649],["representanter",-10.35974974800931],["▁milf",-10.359765602253296],["▁universitets",-10.359766276088749],["▁rettet",-10.359913397835006],["▁grenser",-10.360305292754948],["fulgte",-10.360728229105751],["old",-10.360903302335556],["svarer",-10.361702047775577],["gata",-10.361849220942494],["▁butikker",-10.362637166891512],["▁minner",-10.362646493184744],["▁avstand",-10.363043603713123],["talt",-10.363532153911716],["▁grundig",-10.364089457313884],["▁uka",-10.3647167219182],["bruken",-10.365337474606308],["menneskene",-10.36541321908007],["▁registrere",-10.365468884275044],["skjønner",-10.366179307732644],["utenlandske",-10.366218557793932],["▁leter",-10.36656724770386],["▁arbeidstaker",-10.366627285905484],["▁beskytte",-10.366762541361435],["gjøre",-10.367022050011446],["talte",-10.367133625840069],["øvelser",-10.367549524133825],["elt",-10.367716646326466],["▁bodø",-10.3684449972059],["▁kvinnene",-10.368820942763266],["ballen",-10.369259271988074],["▁smil",-10.37024443218721],["forening",-10.370520684421736],["val",-10.370865635718392],["gård",-10.371044951828516],["▁nettside",-10.372003425945056],["mannen",-10.37246804605888],["følelsen",-10.372677544353843],["▁dokumenter",-10.3727420750317],["▁utarbeide",-10.372888291315665],["▁oppdage",-10.373131720371775],["klokke",-10.373309620750309],["påvirker",-10.373339751480655],["kritisk",-10.373404566518406],["langsiktig",-10.373943066062914],["start",-10.374117073732863],["▁bedrift",-10.374690005012232],["▁un",-10.374919096321586],["▁baby",-10.3750987436248],["skiller",-10.37585672671707],["▁næringsliv",-10.375872451746732],["▁bære",-10.376358276069254],["▁va",-10.377155872333462],["▁konto",-10.377365082307357],["▁trekk",-10.377585729883476],["prøvde",-10.377662498934646],["▁bio",-10.37849551895997],["▁planlegge",-10.378499887591722],["▁tilgjengelige",-10.378978454276146],["▁hot",-10.379029997540608],["▁dit",-10.37903668710703],["▁johan",-10.379955500065009],["▁kritikk",-10.381725475667148],["▁sove",-10.382207179503895],["▁elev",-10.382541651983626],["▁smerte",-10.382559961903675],["▁egnet",-10.38373021712159],["▁østfold",-10.384272230041535],["▁tilknytning",-10.38560714373166],["▁velvære",-10.386565989600095],["lært",-10.386747999662424],["ordning",-10.38678898227178],["lagene",-10.386993038262103],["bø",-10.3872592631256],["vold",-10.38726115354054],["▁ball",-10.38744060346143],["▁stat",-10.388254955606772],["messig",-10.389144574817568],["▁syntes",-10.389161532141184],["fylkesmannen",-10.389264728794418],["▁glemme",-10.389627914469123],["▁arbeidsmarked",-10.389637815081564],["kontoret",-10.390201305296866],["▁steg",-10.390220563142234],["giftet",-10.390677475290282],["▁omsorg",-10.390990913172487],["morsomt",-10.391116198678771],["personopplysning",-10.391200417449037],["lyst",-10.391646052872012],["selskap",-10.392068451127226],["▁trekker",-10.392089072208018],["▁konkurransen",-10.392658417024284],["▁mark",-10.392928462583807],["▁lagre",-10.393329466532794],["kontinuerlig",-10.393404276890394],["▁slapp",-10.393559364972566],["▁info",-10.39401290617297],["▁sykehuset",-10.394377397978976],["▁kapasitet",-10.39448019283634],["▁håret",-10.39505285931979],["styret",-10.395245885995884],["kom",-10.39531709084184],["politikken",-10.39540310347604],["prosjekter",-10.395878424939667],["ster",-10.396450158340546],["skapsler",-10.396470746815064],["wa",-10.39673974014791],["forskriften",-10.397417999598517],["museet",-10.397578384087003],["halvparten",-10.397694108137287],["kjøp",-10.398395741238424],["▁støy",-10.398505314414704],["▁mørke",-10.398845848676034],["▁forhånd",-10.3996374222103],["▁hagen",-10.400176678141897],["teknikk",-10.400587440363877],["▁statistikk",-10.40061204973345],["næringen",-10.40066114696383],["▁rad",-10.400804635262103],["▁direktør",-10.400898320011551],["▁diskusjon",-10.40090190084475],["▁opplys",-10.401113862760004],["direktoratet",-10.401418075345378],["▁detaljer",-10.401430640169528],["▁skapt",-10.402019949236278],["▁markedsføring",-10.402428106243422],["▁leverandør",-10.402542901130031],["likte",-10.402740414937044],["inntekter",-10.402856445866146],["▁låne",-10.402902341949524],["▁produktet",-10.402947027192129],["▁gifte",-10.403175048911416],["gitt",-10.403403595238704],["▁ko",-10.403441465689628],["industrien",-10.403567864241278],["▁midlertidig",-10.403571811501967],["▁www",-10.403806110477024],["▁henger",-10.403856115600446],["tun",-10.403982400093131],["▁undersøke",-10.404144780959555],["▁løfte",-10.404892826954027],["▁front",-10.40523929965056],["▁regn",-10.40538149868202],["begrepet",-10.405483275610706],["fin",-10.40562089097608],["▁betalt",-10.405916895494483],["▁pluss",-10.4075056202942],["▁omfatte",-10.407708893637723],["sikrer",-10.408048131447384],["▁hjertet",-10.408175941526045],["▁bevis",-10.4084256738359],["▁park",-10.408661173851414],["vurderer",-10.41013831641971],["▁fil",-10.410455968613514],["▁frivillige",-10.410862531280918],["prøvd",-10.41104257848235],["▁størst",-10.411424198249424],["mal",-10.412530465557552],["▁møteplassen",-10.41309432397067],["kjemisk",-10.413403226366007],["▁sports",-10.413904533389186],["▁oppfylle",-10.414221769252086],["dekker",-10.414421136235305],["sjefen",-10.415176074743616],["▁retts",-10.415374007815586],["▁sliter",-10.416141840861965],["forventet",-10.417416681356272],["▁problemstilling",-10.41774678597342],["▁hendelser",-10.417779652169935],["▁elektronisk",-10.417817179994808],["gan",-10.418034453513382],["▁behandlingen",-10.41827031063726],["▁feire",-10.418436519983826],["▁site",-10.418610791963086],["▁møtes",-10.418882616863945],["▁eventyr",-10.418888170689046],["á",-10.419044106103115],["▁legen",-10.41985993884322],["▁samtale",-10.420098774880756],["con",-10.42047160512793],["▁areal",-10.421031251772948],["▁tillit",-10.421326890078246],["▁tilstand",-10.42139434863692],["▁dom",-10.422081446572802],["▁multi",-10.422443513426364],["▁hunden",-10.423269228930398],["kultur",-10.423328313622244],["▁sammenligne",-10.423433223301824],["▁kilometer",-10.423501351565957],["▁bærekraftig",-10.423648718191137],["▁fordeler",-10.423932031492985],["▁press",-10.42393932059084],["ard",-10.424362524319733],["▁sant",-10.42459530650967],["landets",-10.424804734814998],["▁oppstart",-10.425184073216728],["▁olsen",-10.42550443581072],["rud",-10.425745649309118],["▁rik",-10.426233025780856],["▁brudd",-10.426339047678288],["bildet",-10.426646139579502],["▁tele",-10.42667778528069],["▁danske",-10.426766619328632],["▁følelse",-10.426771213123438],["dømt",-10.4269745340353],["sdatter",-10.427319401386908],["tilsynet",-10.427366882978353],["akt",-10.427478337353191],["▁understrek",-10.427486135712048],["▁reiseliv",-10.427856400452905],["▁metall",-10.428407891347868],["▁thomas",-10.428974642461665],["undersøkelse",-10.429278066305926],["▁utfordring",-10.429380154297178],["▁escorte",-10.429449710482707],["▁omtale",-10.429643858540928],["▁ført",-10.429878159364488],["▁kommunikasjons",-10.430248400952124],["ator",-10.430508280723222],["▁øyne",-10.43052815079086],["▁øl",-10.430753426801298],["▁tanken",-10.430886771197224],["▁flink",-10.430956575236223],["natten",-10.431433969102056],["stillingen",-10.432685984713745],["tingene",-10.432708689798952],["▁olav",-10.432714320909172],["▁innrømme",-10.43283174637916],["▁elektronikk",-10.433225912728057],["▁nabo",-10.43338966828224],["▁massage",-10.43354251642441],["▁kj",-10.43428894706618],["▁historier",-10.434395489823808],["▁bygd",-10.434893703827727],["▁ulik",-10.43515901785518],["▁merker",-10.435505699642036],["▁kong",-10.436273645270305],["taket",-10.436556955547346],["▁fylkes",-10.437130467584767],["▁altfor",-10.437255376457024],["egår",-10.437755588254566],["følgende",-10.4385347971695],["▁anbefale",-10.438616729394914],["▁li",-10.438865707881847],["bane",-10.43892360932172],["▁laste",-10.4396214186536],["effekten",-10.439838201239102],["gren",-10.440159650535907],["▁hotel",-10.44046054365718],["dan",-10.44085915939154],["beskriver",-10.44131997832458],["▁tenk",-10.441423323783727],["▁teksten",-10.441581816469782],["▁pause",-10.441806260569091],["▁bestemme",-10.442313882004983],["▁mulige",-10.4426504486283],["▁arrangement",-10.443415423837225],["søkt",-10.443568090391702],["▁idrett",-10.443637882751291],["sammenlignet",-10.44365788919629],["faget",-10.444160821807804],["▁gran",-10.444571527409028],["▁paris",-10.444785657476167],["rollen",-10.445430406879664],["midten",-10.446148911288146],["ket",-10.446835187413122],["▁herre",-10.446885950591891],["▁satse",-10.446923389521457],["funksjonen",-10.447101010928924],["▁forum",-10.44783916965107],["▁tilbakemelding",-10.448115150205744],["arrangert",-10.448232166109102],["enige",-10.448430804701392],["verdi",-10.448431543158662],["lund",-10.449068332846606],["▁odd",-10.449305747694932],["bedt",-10.44998144150757],["fest",-10.4503716312935],["▁finnmark",-10.450752449485153],["▁visse",-10.45110930211256],["politikere",-10.451205037421497],["▁generell",-10.451305109429038],["byen",-10.45218878043939],["▁lengde",-10.452352402346632],["▁italia",-10.45346265249962],["▁kone",-10.45365867478688],["▁sju",-10.453773044131609],["▁frihet",-10.453773183640466],["relevante",-10.453828836390423],["organisasjon",-10.454669866691487],["▁storbritannia",-10.455292519630309],["▁metode",-10.455443049337502],["▁ulovlig",-10.4562850516989],["▁euro",-10.456325500564546],["▁bry",-10.456347549887932],["▁pupper",-10.45695272655025],["ryggen",-10.457573695665968],["▁tri",-10.458003362837085],["▁fr",-10.458020128322154],["▁påpek",-10.458127609357923],["▁usikker",-10.458671974677644],["ille",-10.4588882470085],["▁skogbruk",-10.458947446078968],["gir",-10.459444107148],["▁kjønns",-10.45961503253851],["vant",-10.45991969512905],["▁varm",-10.460020176489811],["▁maskin",-10.460394706859647],["▁spiser",-10.46053150487496],["sex",-10.460815985792204],["▁utsikt",-10.460974151217329],["▁lave",-10.461817348534629],["mennene",-10.462285878048275],["▁rock",-10.462532621841296],["mengden",-10.463478562042315],["▁cam",-10.463743455790476],["trekk",-10.46460394144368],["▁gjennomsnittlig",-10.464798825584564],["▁alvor",-10.465725152921465],["eiendommen",-10.465792712174478],["▁spurte",-10.465946514370325],["drar",-10.466008463848324],["▁teste",-10.466490237368504],["invitert",-10.46674367922489],["▁produsere",-10.467098636682223],["▁innstilling",-10.468514952057584],["▁redde",-10.468722353003017],["▁tilpasse",-10.46950251104414],["▁grense",-10.46982263413293],["▁dreier",-10.469930501984738],["▁kyst",-10.47074094899244],["rart",-10.470879584769907],["▁ramme",-10.470928602021669],["ære",-10.47315338051945],["▁rø",-10.473233716427147],["vokser",-10.473383332854736],["historiske",-10.473392560142884],["▁trygge",-10.473569464309298],["▁innsikt",-10.474509444584532],["▁likhet",-10.47513984530632],["verre",-10.475862647234184],["▁konge",-10.476484174500415],["▁myndighet",-10.476861831808405],["▁city",-10.47692796933486],["utarbeidet",-10.477480757779905],["▁stede",-10.477534846540204],["und",-10.47784238342327],["opplevelsen",-10.478027232462257],["krav",-10.478164642622394],["meldt",-10.478395134352963],["▁maria",-10.47879688248958],["▁dekk",-10.479971291113628],["innført",-10.480513069943504],["▁synd",-10.480553149933126],["▁personal",-10.48069465961278],["forklarer",-10.480714134042682],["negative",-10.48141704065496],["▁grønne",-10.482055916608804],["▁deltakelse",-10.482386643462291],["effektivt",-10.482936694129096],["▁teater",-10.483141315949393],["bro",-10.483323693300456],["▁bevege",-10.483668915636862],["systematisk",-10.483718338214777],["▁orientering",-10.484705539253437],["risikoen",-10.484791093304205],["inspirert",-10.484794185727624],["▁gro",-10.484907623406638],["▁diverse",-10.486243734070166],["▁løs",-10.486756530819948],["▁ntnu",-10.486821959019483],["døpt",-10.486994601606655],["anbefalt",-10.487344571432306],["▁syv",-10.48737786477527],["høgskolen",-10.48751908893716],["▁mobiltelefon",-10.487696437455597],["leveres",-10.488602365991166],["▁søte",-10.488736368268686],["baserte",-10.489067099066984],["teamet",-10.48956753357008],["▁advokat",-10.489712394715388],["riksrevisjonen",-10.490693764906414],["▁presentasjon",-10.490720818918614],["gruppene",-10.490734679067891],["▁avslutte",-10.491074024331516],["tion",-10.49131316736928],["virket",-10.491440887225542],["▁fakta",-10.492140051283805],["rasker",-10.492254050102945],["▁krig",-10.492500405354726],["faktorer",-10.493219105447931],["▁car",-10.493726383241231],["▁eldste",-10.494089204367995],["▁karriere",-10.49447806212358],["sam",-10.494689163603582],["oftest",-10.495674600809512],["bel",-10.49639295260809],["vanlig",-10.496654748666952],["▁dollar",-10.496913282831914],["▁tørr",-10.49700814369196],["▁kilder",-10.4972366447166],["▁syke",-10.499807678751273],["føring",-10.500135469424814],["sesongen",-10.500396659521972],["▁kommunestyret",-10.500420863692913],["cc",-10.501714679558509],["involvert",-10.501722660251302],["seksuelle",-10.502809711898326],["presentert",-10.50290123909372],["▁kapital",-10.503569431554409],["▁søt",-10.503606775682362],["konkrete",-10.50367363831692],["▁homofil",-10.50383331071351],["▁strand",-10.503851935659274],["▁intervju",-10.504051830482046],["hallen",-10.50423530724889],["dyktige",-10.504347816324096],["lia",-10.50444374913778],["generelle",-10.50473179997356],["▁tide",-10.504811275356008],["sko",-10.505227058334752],["fysiske",-10.505499395870745],["fremtidig",-10.50576620885554],["▁hi",-10.505814989904222],["▁knytte",-10.506016269955586],["▁sjanse",-10.506136837430146],["▁frivillig",-10.50656089985523],["▁anal",-10.506842122776256],["▁skjønn",-10.506858580322785],["▁nekte",-10.5070589192592],["målene",-10.507439543949278],["▁koster",-10.507780984178709],["▁samling",-10.508197362910588],["dere",-10.508433835370957],["▁hytte",-10.508643928695962],["▁grep",-10.508698270629097],["▁apotek",-10.509041108079314],["▁tjene",-10.51020624493462],["▁pass",-10.51032210440374],["▁oppfordr",-10.510769727897332],["tildelt",-10.511049914935986],["▁kaste",-10.511078635365076],["sjansen",-10.511323010428686],["banken",-10.511829696355615],["▁kv",-10.511939026459244],["forskjeller",-10.512144508120336],["▁medisinsk",-10.51332691164911],["▁gjester",-10.513480239569086],["voll",-10.513523090766274],["▁sy",-10.51375526647568],["profesjonelle",-10.514758847459664],["▁your",-10.51657474241334],["▁tonn",-10.516769965477163],["sies",-10.51705811739969],["debatten",-10.51759437768607],["▁organisasjons",-10.517777391812023],["ærre",-10.518078338393671],["butikk",-10.518617404855313],["parken",-10.518652329787454],["▁løper",-10.518775097120198],["▁engros",-10.51881974565365],["nor",-10.51894099865197],["pro",-10.51907493521472],["handlinger",-10.519126741968874],["års",-10.519631361706262],["▁utenom",-10.5200295531501],["▁mengder",-10.520107255909226],["▁samtykke",-10.52050104249212],["▁motivasjon",-10.52087491273388],["stra",-10.521061732963547],["▁fjern",-10.521100719433012],["▁troms",-10.521746645353105],["▁kommentar",-10.52207874620201],["vunnet",-10.522294814959707],["oppgitt",-10.522359383807556],["▁ku",-10.522602726192382],["▁gay",-10.52307543905834],["▁føles",-10.523163305426028],["direktør",-10.52364059783594],["▁trygghet",-10.52408231653238],["▁korte",-10.524120513313187],["▁innkjøp",-10.524498191162545],["▁stoff",-10.525565499665031],["▁jernbane",-10.525663047795716],["▁synlig",-10.52701255382027],["blikk",-10.527323941817617],["get",-10.527436476241997],["▁religion",-10.527686124264132],["▁innskudd",-10.527982704039758],["historie",-10.52809504671824],["praktiske",-10.528465368640822],["ä",-10.529305894985196],["beregnet",-10.529435483274174],["unike",-10.530365865431792],["utdanning",-10.530486371627775],["▁handels",-10.53052237768904],["bestemmer",-10.531376973326042],["▁utendørs",-10.531393658131458],["▁identitet",-10.53148997408504],["▁morten",-10.531872247560417],["aker",-10.53226367269256],["▁bestilling",-10.532586320499115],["▁møteplass",-10.532774764871544],["diskutere",-10.532892823017589],["▁regi",-10.533030931653762],["forfatteren",-10.533141315666375],["prisene",-10.533456246395902],["▁besøker",-10.533809970834252],["▁black",-10.534329817130365],["▁resulter",-10.534437289323678],["kel",-10.53482814868263],["scenen",-10.53517927181016],["▁hjemmeside",-10.53579580100862],["sinne",-10.53584682454911],["▁mus",-10.53645512094642],["all",-10.536742033912263],["▁dekket",-10.537037040934043],["▁mis",-10.537237060775738],["▁innføring",-10.538065370809605],["▁vilje",-10.538764136779054],["▁fredrikstad",-10.538784134121276],["▁regionale",-10.539336589474033],["middel",-10.539580453641546],["vurderes",-10.539895713806228],["▁score",-10.540268817610466],["bandet",-10.540702044126986],["anbefales",-10.541004498159642],["▁temperatur",-10.541042497205412],["▁ann",-10.542560989061446],["kysten",-10.542701805221183],["▁frokost",-10.543579181115197],["▁øyeblikk",-10.543856874023286],["▁regnskap",-10.543923395518654],["▁koble",-10.544131986953108],["potensiell",-10.544799465980358],["▁leverandører",-10.544990166886892],["temaet",-10.54531413887842],["▁opptak",-10.545868777147234],["▁skatt",-10.546351288728133],["løst",-10.54685072513169],["sloven",-10.547640285786771],["▁personvern",-10.547744358655102],["plikter",-10.54796799434277],["finalen",-10.549463428776363],["ringer",-10.54968943259182],["line",-10.550034051994931],["▁brukeren",-10.550173947328355],["▁danse",-10.550826532077558],["▁bokstav",-10.550906668782336],["organisert",-10.550925923464948],["sørger",-10.551018671775266],["bygningen",-10.551473065538016],["▁petter",-10.55242572851035],["▁ekstremt",-10.552644001620184],["▁oppover",-10.552986526319332],["▁døgn",-10.553544182361875],["▁regne",-10.553633296804565],["▁peter",-10.55376918333633],["▁søvn",-10.553890747944],["likt",-10.554065416977004],["reiste",-10.5542061130746],["▁kap",-10.554784211525156],["▁tjenestene",-10.554967953146203],["▁mil",-10.555409670407176],["kamp",-10.5560131660968],["festivalen",-10.556325065317113],["▁frp",-10.556375924207217],["elige",-10.556603251654543],["▁beholde",-10.556693217826089],["▁strid",-10.556710684107014],["kvalitet",-10.557972232958091],["▁plassering",-10.55883134795672],["anne",-10.558881676794565],["▁sikte",-10.559016747220223],["stoffer",-10.55914848239606],["▁fellesskap",-10.559171858442465],["▁mac",-10.55924232964083],["▁generasjon",-10.559434110723856],["▁samler",-10.56012081397322],["▁trist",-10.560898067457137],["▁sjel",-10.561176196877298],["bra",-10.562277204810249],["miljø",-10.562470799292862],["▁skogen",-10.56275298180692],["britiske",-10.56298487613711],["ung",-10.563092242532418],["▁tube",-10.563781544389892],["▁straffe",-10.56449730367502],["▁forventninger",-10.565140629293184],["▁speed",-10.565302418757884],["skjønt",-10.565371311781297],["▁regnet",-10.565702275915596],["rådmannen",-10.565771378276354],["▁prøv",-10.56606092331314],["nærmer",-10.56623435121145],["▁oppfatte",-10.566712220563655],["lands",-10.56689293950632],["▁eksister",-10.566924925910316],["opplevde",-10.567188990033152],["▁vestfold",-10.567530380862934],["kommunens",-10.567752476427618],["kompetanse",-10.568164573612478],["▁rogaland",-10.56922752747188],["▁klokka",-10.569372961514173],["ium",-10.569643404628458],["▁hverdag",-10.569968990020795],["▁rot",-10.570540944875034],["▁levering",-10.570829606980377],["▁fl",-10.570903278027822],["▁hu",-10.570992988762171],["kostnadene",-10.57105774626501],["▁sal",-10.571793707773168],["▁regjering",-10.571793992135172],["kvinnelige",-10.572338925059451],["▁mannlig",-10.572591370346064],["enorm",-10.57301243510941],["avisen",-10.573327859509345],["skjult",-10.573858137072529],["▁hurtig",-10.5738757644734],["manns",-10.5741819930195],["beløpet",-10.574240264112628],["▁morsom",-10.574316876184382],["øst",-10.574558898111242],["sendte",-10.574682109082689],["▁initiativ",-10.574741587626784],["▁utforming",-10.574797190364574],["▁fengsel",-10.575171755974203],["▁profiler",-10.575360083188134],["▁verdenskrig",-10.575508173586591],["tas",-10.575754542242594],["▁link",-10.576270566451443],["verdig",-10.576326316356791],["▁forvaltnings",-10.577273012507142],["▁basis",-10.57759500590817],["▁molde",-10.578529821685182],["▁hansen",-10.57864617008261],["▁samarbeidspartn",-10.578980996573014],["▁andreas",-10.579052686675224],["▁klassisk",-10.579065829057075],["▁overgrep",-10.579103713586388],["dommen",-10.58011054973141],["▁regnes",-10.58019951811394],["▁programvare",-10.580568072109038],["▁fi",-10.580580207727138],["▁grå",-10.580633097410708],["▁pensjons",-10.58080402515886],["▁lavt",-10.581093933345302],["hånd",-10.581400656982236],["poeng",-10.581481211130368],["versjonen",-10.581491467043543],["anses",-10.581732158246986],["▁arter",-10.58184888582931],["▁begrense",-10.582124245287616],["▁skjerm",-10.58256099058313],["oppført",-10.582613607498988],["vilkårene",-10.582650897442438],["▁prosjektleder",-10.58273958796953],["▁flertall",-10.582904804246787],["cy",-10.58301677051024],["▁trump",-10.583930406147076],["▁modeller",-10.584229773807468],["bilde",-10.584680694773953],["▁saks",-10.58480045581564],["▁minimum",-10.584815416737666],["▁beskyttelse",-10.585316293669113],["▁forbruker",-10.585317652417071],["mulighetene",-10.58535527379232],["forsøke",-10.585761335172844],["▁rammer",-10.585905843597104],["▁matematikk",-10.585937309642926],["▁gav",-10.585938680517089],["app",-10.585965595083255],["sønnen",-10.586411104805228],["▁retur",-10.586481408351515],["▁kastet",-10.586524382681754],["trengte",-10.586693693661044],["deles",-10.586850763995448],["▁apple",-10.588253840608656],["ika",-10.588428161587776],["▁avtaler",-10.588996840220952],["▁ettermiddag",-10.588997993157667],["▁spenning",-10.589112497908884],["▁guide",-10.589676683170088],["▁grunner",-10.589806931471598],["delt",-10.589885516761877],["▁magen",-10.590565904422547],["takket",-10.590736821761844],["▁beløp",-10.591047874065136],["parten",-10.591538487204703],["legges",-10.59156245305772],["utøvere",-10.591987303041448],["▁marked",-10.592327843638696],["▁organisering",-10.592675267058777],["▁skip",-10.592846370315817],["kanten",-10.592890215731597],["▁lete",-10.59307794456517],["teknologi",-10.593195619464638],["▁øya",-10.59327614159089],["▁tann",-10.593290897601772],["par",-10.593304320749557],["▁kvartal",-10.59335942904226],["fordelt",-10.593717856126885],["strøm",-10.593784940368488],["lansert",-10.593937744872637],["▁balanse",-10.59404295203418],["saken",-10.594512324215184],["▁tilsyn",-10.594691208205395],["▁øvre",-10.594773850099015],["▁skifte",-10.59577034925646],["▁konflikt",-10.595843512699538],["▁betong",-10.59603081664348],["bakken",-10.596189544663243],["▁etablering",-10.59630435648615],["▁næringsmiddel",-10.596401949289088],["▁handling",-10.596978240732833],["▁funn",-10.597063973640523],["før",-10.597142448101271],["▁mengde",-10.597331916435358],["▁lunsj",-10.597446053103074],["▁programmer",-10.597831891384129],["▁tradisjon",-10.598879538964033],["▁gjeng",-10.598891450839142],["arbeidslivet",-10.598941122249949],["▁skjermen",-10.59918490281379],["▁ærlig",-10.60020483434456],["prosjektene",-10.600409688508512],["▁island",-10.600546470038685],["▁arena",-10.600681282085109],["tekster",-10.601984328668564],["trøndelag",-10.602089156576156],["▁gul",-10.602648250688825],["▁kontrollere",-10.60265991057561],["▁bevisst",-10.603189193077744],["▁tone",-10.60348413888732],["spørsmålene",-10.6035813335774],["▁fange",-10.60455440380457],["mel",-10.604789376039037],["vekst",-10.605666911732245],["▁tra",-10.606234348376931],["▁gravid",-10.606414267763416],["▁str",-10.606634010690858],["▁cookies",-10.60763879761562],["▁betaling",-10.607796015240076],["▁plasser",-10.60786609477401],["drift",-10.60847283005505],["▁youtube",-10.60935775233543],["formen",-10.609895807240212],["husker",-10.61018302202301],["▁hender",-10.610542717229814],["▁følg",-10.61062516217285],["metoden",-10.610856001021276],["hund",-10.610894184286863],["▁spre",-10.611302519542326],["føres",-10.61165596945027],["opprinnelige",-10.611946025963542],["▁iphone",-10.612161429784187],["▁utslipp",-10.612362015449628],["▁spr",-10.61316843294058],["▁gulv",-10.61323443745533],["▁bistand",-10.613279129007555],["▁sola",-10.61415601971593],["▁red",-10.6152172194954],["plasser",-10.615608777163493],["▁utforme",-10.6159667134932],["▁vegg",-10.616292257975058],["▁vellykket",-10.616600634553606],["▁moren",-10.616774860843982],["bygninger",-10.616925714903136],["▁lovlig",-10.617017334473616],["stedet",-10.617045538863774],["▁fot",-10.617580521161774],["hytta",-10.617691265229375],["▁world",-10.618246112901875],["▁aksje",-10.619087475237606],["virksomheter",-10.61960158356128],["▁mail",-10.61967909055001],["▁vakker",-10.619917915998748],["▁lot",-10.62008841131328],["▁telemark",-10.620636639113249],["box",-10.62101942733889],["▁hoteller",-10.621042563944886],["veksten",-10.621129606197185],["administrasjonen",-10.621183041312364],["salg",-10.621254163956475],["ow",-10.621438174699875],["besøk",-10.62228148198608],["kontakt",-10.622384688878771],["▁bevegelse",-10.622531447065588],["▁avslør",-10.62286835918988],["▁gutta",-10.622893282964506],["bladet",-10.622898070645396],["mag",-10.622921240522782],["▁oppdatering",-10.623242782498629],["▁wi",-10.623308749794532],["▁vakt",-10.624251701824146],["▁verne",-10.624562718974587],["rop",-10.624571585565093],["▁slutte",-10.62485475873391],["dra",-10.625085963702272],["▁årsmøtet",-10.6262508957342],["sky",-10.626585607628783],["▁cup",-10.62694072639322],["▁sites",-10.627213936691245],["▁profesjonell",-10.627584089564769],["organisasjoner",-10.628200131738396],["designet",-10.628782127517589],["armasøytisk",-10.628933779502464],["▁forutsetning",-10.629125562758524],["▁ender",-10.62941234257699],["tap",-10.629442400912842],["▁dis",-10.629612739707076],["▁utfører",-10.629752180735917],["▁marie",-10.629840433766647],["meldingen",-10.629908629900497],["▁svak",-10.630048163056554],["▁næring",-10.63012209885962],["▁kjøkkenet",-10.630142850519746],["▁skru",-10.630339445442544],["▁mel",-10.630653800008949],["▁stoppet",-10.630805283541958],["▁varier",-10.630940785118566],["video",-10.630944775347984],["▁sekunder",-10.63105378592847],["▁ris",-10.63107089136229],["nettverket",-10.63126501936719],["antallet",-10.631443104709778],["▁populært",-10.631510980055468],["▁sandnes",-10.632289667230545],["ifra",-10.632583252383968],["▁ph",-10.63265651954163],["ju",-10.63281898699425],["▁hvile",-10.63284853910952],["▁reager",-10.63345965216255],["▁pakke",-10.6336001346638],["året",-10.634109923333355],["utvalgte",-10.634441685110229],["▁bru",-10.63506975629062],["▁drømmer",-10.635116101009432],["syre",-10.635124550652549],["▁tysk",-10.635507304682733],["ister",-10.63564008634776],["mul",-10.635943855171629],["kor",-10.636542184159682],["▁inntekt",-10.637497420151751],["alderen",-10.638332218546449],["▁ros",-10.63839548933548],["lar",-10.638487214191043],["▁totale",-10.638658835147345],["{",-10.639061728099598],["▁anleggs",-10.639671516911704],["▁plikt",-10.639830398084506],["▁sosialt",-10.640459488750237],["konferansen",-10.640751774977565],["▁bibliotek",-10.64083104343132],["ü",-10.640993108868154],["pen",-10.64101817923841],["▁harald",-10.641142165636714],["za",-10.641343682459762],["▁gjestene",-10.641567028836665],["▁utgave",-10.641597311045894],["dating",-10.641769785088975],["skog",-10.641818995345862],["▁gu",-10.642006556730694],["▁avgjøre",-10.642086658889918],["alvorlige",-10.642244764351164],["▁konkret",-10.642751960164786],["▁preg",-10.642789629415102],["engasjert",-10.642860827446455],["▁klager",-10.643255246470158],["kl",-10.643568333350782],["stilling",-10.6439546562871],["typisk",-10.644049323122328],["▁inviter",-10.644130718587183],["▁canada",-10.644590584982792],["selskapets",-10.64459455255214],["▁teori",-10.644783785424073],["fullført",-10.644902935754876],["▁orden",-10.644918998987729],["utvalg",-10.64506190631446],["▁virkeligheten",-10.64509062195694],["▁rente",-10.645123953211474],["skader",-10.645158067729104],["▁ull",-10.645868720210617],["▁vokse",-10.64624513022454],["▁kost",-10.646255752738336],["utfordrende",-10.646325354547743],["▁sch",-10.646652816073182],["▁aksjer",-10.646659941539625],["▁kjerne",-10.646706044141649],["▁formidle",-10.647044600738951],["minister",-10.64745474558592],["▁rev",-10.647482116375793],["ras",-10.648073674480306],["}",-10.64887298189044],["gard",-10.648893034127289],["▁hull",-10.649038961375876],["att",-10.649440520140686],["▁fylkeskommune",-10.649742344175516],["▁hunder",-10.650257797404228],["hensikten",-10.650370036544766],["årsaker",-10.650596963897195],["▁forbehold",-10.650782462542905],["▁koste",-10.651103319418576],["▁historisk",-10.651919805818816],["▁fremtid",-10.652562124432045],["▁nedover",-10.653244991878257],["transport",-10.653809692132],["øvrig",-10.653941731530477],["▁ve",-10.654045570029272],["▁reklame",-10.654573960967555],["olje",-10.654601914812972],["▁eksamen",-10.65479807381145],["type",-10.654867331360595],["fre",-10.654920638087535],["▁league",-10.654969087849086],["▁auto",-10.655427932917185],["bakgrunnen",-10.656021620844909],["▁agentur",-10.656055261808318],["måneden",-10.65632238717987],["rørende",-10.656557390357536],["▁foredrag",-10.65656292912372],["rak",-10.656816354817355],["gjorde",-10.656997203804622],["▁kino",-10.657119427767732],["▁henge",-10.657347985510588],["▁fransk",-10.657817127284115],["▁big",-10.65857992089334],["▁glade",-10.658627989028613],["▁kose",-10.658772760072733],["▁batteri",-10.658791281570997],["▁penge",-10.658830042127938],["▁ordfører",-10.658970656803806],["▁faktum",-10.659010781282973],["▁divisjon",-10.659050229717955],["testet",-10.660017674321008],["▁undertøy",-10.660059404083256],["▁vegne",-10.660114488956728],["naturlige",-10.660295931113817],["ast",-10.660417006546172],["variert",-10.660480288442306],["fortalt",-10.661027153627458],["romantisk",-10.6611531163384],["▁anna",-10.661324922057757],["▁tilstede",-10.661936025640648],["linjen",-10.662041401704192],["▁snu",-10.662408358421596],["▁sort",-10.6629362754059],["nings",-10.66319675488088],["▁familier",-10.66343788240378],["brudd",-10.66345414243626],["▁bane",-10.664024696890364],["test",-10.664212060810009],["vekt",-10.664361275201513],["▁konsert",-10.664394632802145],["sport",-10.664429749789996],["lighet",-10.664504988944383],["▁knulle",-10.66479211452166],["▁byr",-10.664797963715907],["ødelag",-10.665083781889823],["▁kongen",-10.665759766922696],["▁strikke",-10.66588348747941],["ros",-10.665986059099644],["▁hund",-10.666573701424662],["forsøker",-10.666645196889569],["hørende",-10.666972696195828],["▁will",-10.667982049064502],["▁liksom",-10.668008874350775],["▁los",-10.668109545138597],["▁oppfatning",-10.668384711537144],["identifisere",-10.668934316040126],["▁årsmøte",-10.66930050968829],["▁tung",-10.669634031171435],["▁seksjon",-10.669977490974016],["erud",-10.670499372895044],["▁skjema",-10.670667998103646],["▁beskrive",-10.670783690028662],["▁pensjon",-10.670983167497813],["behandles",-10.67130915952892],["▁grav",-10.671407008999962],["▁franske",-10.671495590877296],["▁kommunal",-10.672260641105929],["▁helge",-10.67248428662805],["▁omsorgs",-10.672976356186108],["▁tilhører",-10.673271066378035],["handler",-10.673344813242466],["▁master",-10.673383140637016],["sluttet",-10.673608476515572],["hun",-10.673810645767023],["▁karl",-10.674090104790654],["utgaven",-10.674156403195576],["▁kartlegging",-10.67457705434124],["▁grønnsaker",-10.67470577529423],["mus",-10.674840062998346],["▁prosesser",-10.675114190652536],["▁japan",-10.675126920123107],["utstillingen",-10.675318056904093],["dager",-10.675485582368037],["klasse",-10.675688030118692],["føre",-10.675940500492803],["http",-10.67636703611836],["fly",-10.676542031149616],["symptomer",-10.67757147989382],["ansvarlig",-10.677783787694423],["▁hell",-10.677839067858152],["▁heldig",-10.677912176034551],["▁forebygge",-10.678641999166638],["▁samarbeide",-10.678732403518977],["fylte",-10.678800557502235],["▁tøff",-10.679096895002544],["vegen",-10.679299916992694],["spor",-10.679823651697223],["bevegelsen",-10.680745434557853],["▁selvstendig",-10.681826895536268],["▁forsvarlig",-10.6824017931746],["investeringer",-10.68261894519587],["▁nils",-10.682874003148005],["▁david",-10.683116950438643],["▁terror",-10.683521428838628],["ham",-10.683651890823874],["definitiv",-10.683673218809046],["▁sum",-10.684186378579176],["▁virkning",-10.684384849369506],["løpende",-10.684594892215951],["kjent",-10.68491140478747],["messige",-10.685598439687896],["overrasket",-10.685741590547265],["▁hode",-10.686069208626048],["næringslivet",-10.686085315667118],["▁oppgjør",-10.686689468620743],["stasjonen",-10.68671707461626],["▁arbeidstakere",-10.687032427498728],["▁ånd",-10.687224060921448],["▁kristian",-10.68745145670562],["sin",-10.687571080332203],["▁ansikt",-10.687730908453092],["▁styrker",-10.687975692492252],["dukker",-10.688218226053593],["far",-10.688314752497668],["▁bedrifts",-10.688351561847613],["▁oppfordre",-10.688573878473523],["▁eleven",-10.688648183716902],["▁betalings",-10.688845254585026],["▁referanse",-10.688904520214844],["amp",-10.689502338603628],["out",-10.689934222646484],["▁fo",-10.689938042884696],["▁musikken",-10.69040389061311],["kriterier",-10.690944278713852],["dis",-10.691216848751289],["▁samboer",-10.691306897688754],["ku",-10.692079596262978],["selv",-10.692122064899072],["▁riks",-10.692251841958315],["skipet",-10.69232810300065],["lan",-10.69278071694359],["▁verste",-10.694376202711164],["▁utredning",-10.69459836724432],["▁mobile",-10.694653316292117],["▁mage",-10.695076770363272],["▁send",-10.695152673580992],["▁hedmark",-10.695250925543345],["▁kos",-10.695363623503178],["design",-10.695374304604693],["feil",-10.69542115469828],["▁pol",-10.695551927561851],["tittelen",-10.69574799989676],["▁pen",-10.69662134356905],["klinisk",-10.696691851761692],["utdannet",-10.697504547652931],["midlene",-10.697784177525504],["▁bortsett",-10.698339320744829],["upp",-10.698448499399367],["trykk",-10.6991693334383],["overraskend",-10.699206762163373],["▁reduksjon",-10.699327022896725],["▁bærer",-10.699696462032044],["relatert",-10.70001471309044],["▁kristin",-10.700083044324842],["▁nært",-10.70028968367573],["pol",-10.701247634652905],["▁turist",-10.701320715753956],["▁million",-10.701686700736248],["prinsippet",-10.701972969995214],["▁val",-10.70252332268722],["villig",-10.702598712648944],["rør",-10.702738965206704],["interessante",-10.70319744070812],["ance",-10.703497708218606],["fokusere",-10.703851456033712],["▁gre",-10.704070641294466],["▁play",-10.704162647149436],["svik",-10.704207168707477],["rende",-10.704757520159268],["▁kombinere",-10.70493944520991],["▁gru",-10.705016980500432],["mod",-10.705034376407674],["skutt",-10.705042250751497],["oppgavene",-10.705084355691858],["frie",-10.706154717716617],["▁idé",-10.706406001894084],["▁trengs",-10.707571828949767],["vor",-10.707961647675932],["statlige",-10.708593791757796],["▁terreng",-10.708702676836488],["årlige",-10.709299169919666],["▁titt",-10.709484611986246],["▁forvaltning",-10.709490531546038],["▁flat",-10.709555258330566],["jakten",-10.70956880481384],["▁andersen",-10.710302650018486],["▁drømme",-10.710519237704816],["▁variere",-10.711033679005308],["morsomme",-10.712130645064327],["🙂",-10.712535841979427],["▁regner",-10.713149285405242],["▁san",-10.71338340975726],["størrelsen",-10.7134927649357],["elsen",-10.713518182960131],["▁telefoni",-10.713605134942464],["▁ass",-10.71378687058892],["▁gal",-10.714066546385988],["▁adresse",-10.714830434233296],["ordentlig",-10.714848376661308],["▁dispensasjon",-10.715330296620683],["▁forsker",-10.715412018526756],["kåret",-10.715959318857658],["▁industi",-10.716021506457528],["evnen",-10.716087392797924],["åpningen",-10.71617895051073],["punkt",-10.716250731652496],["øl",-10.716806760626175],["▁militær",-10.716817212600636],["▁annonse",-10.717203058634436],["▁logg",-10.717667404749555],["▁null",-10.718109852397678],["ris",-10.7181818264259],["lad",-10.71828660299502],["▁elite",-10.718476835437928],["▁operasjon",-10.719026345711589],["etablerte",-10.719241290047588],["▁universitet",-10.71994405324147],["▁nødt",-10.720067500238292],["sol",-10.72017824256668],["hvertfall",-10.72042535402743],["språket",-10.7204298814527],["▁hjernen",-10.720655215815569],["▁gar",-10.72159944654733],["▁kalle",-10.721684123562987],["jorden",-10.721849490823583],["forkant",-10.72199416688703],["az",-10.722236306344463],["omtalt",-10.72227597509855],["▁jens",-10.72228857656598],["▁forsvaret",-10.722976609571244],["melding",-10.723080881715203],["▁india",-10.72309607501598],["▁rosa",-10.723121224556294],["holt",-10.72329634188191],["innføre",-10.723369828777605],["▁lette",-10.723460946196637],["▁lede",-10.723597093817844],["▁høres",-10.723671613095606],["▁bade",-10.723838367489742],["offisielle",-10.724139486568149],["utfordringene",-10.72427044926087],["betaler",-10.724451992623727],["▁perspektiv",-10.725325417947644],["▁haha",-10.72568558774222],["▁institusjoner",-10.725691989107007],["endringene",-10.72574999122764],["støt",-10.725821386812564],["▁varmt",-10.725859064865675],["▁alternativer",-10.72627789415308],["lovens",-10.726393399692585],["▁aktuelt",-10.726422524967722],["▁pårørende",-10.726511733464564],["ica",-10.726790590262253],["▁firma",-10.726976814868252],["forum",-10.727377525257513],["▁kari",-10.72762777386621],["▁para",-10.727735526124258],["▁from",-10.727812508795171],["▁rødt",-10.728505799047529],["▁mal",-10.728889050865748],["▁stimulere",-10.7291516975305],["stengt",-10.729193587822628],["klubber",-10.729204598873311],["▁solberg",-10.729353981576567],["ned",-10.72980144661688],["last",-10.730041065401602],["etiske",-10.730321667216955],["lavest",-10.730471296909291],["▁regnskaps",-10.7307564083774],["▁plante",-10.730769403487956],["▁can",-10.731379138279705],["▁bet",-10.731737440701744],["▁skilt",-10.732425246360895],["▁rygg",-10.732616232214571],["▁materialer",-10.73275969998972],["ungdommer",-10.73297346902098],["▁twitter",-10.73349360669862],["▁svein",-10.733994054964162],["boksen",-10.734025820361614],["▁variasjon",-10.73403459853148],["▁populær",-10.73411059835901],["▁brun",-10.73427936416958],["▁innvandrere",-10.734511138439888],["▁leilighet",-10.734547876040557],["behagelig",-10.734959404656848],["institusjoner",-10.735069865881105],["▁komplett",-10.735546914987443],["▁århundre",-10.73588201420002],["▁tilnærming",-10.735969545296909],["klær",-10.735976148170682],["▁fler",-10.73611864811536],["reell",-10.736254228886894],["my",-10.736307094896103],["bin",-10.736380757725009],["▁ødelegge",-10.736498709194583],["▁innflytelse",-10.73680639550912],["▁kjedelig",-10.736831855063889],["▁overføring",-10.736947788479776],["▁betrakte",-10.737202359327773],["▁planlegger",-10.737262533280278],["moen",-10.737310216315835],["▁peker",-10.73761359571406],["▁kol",-10.738064609378563],["▁ju",-10.738494401117354],["▁senter",-10.738587016612236],["stre",-10.738639104843315],["▁organ",-10.73921589511938],["▁vanskelige",-10.739244770118622],["fastsatt",-10.739303798433829],["funksjon",-10.73939835785528],["tyder",-10.73988819746104],["▁barnehager",-10.74000180499912],["▁hensikt",-10.740287751485498],["▁helga",-10.74046011978116],["▁vaske",-10.740683788842505],["back",-10.741056562271234],["▁skriv",-10.741482010836783],["▁årsak",-10.741764598604766],["lesbisk",-10.742083189506566],["givende",-10.742250177117125],["ansvar",-10.742760276534897],["▁tilgjengelighet",-10.742874126581992],["imellom",-10.742894708827295],["▁ringe",-10.74398642438002],["foto",-10.744437508875436],["press",-10.74446330146053],["typer",-10.744892845195684],["avtale",-10.745085013131757],["▁arbeidsmiljø",-10.745125835065291],["komfortabel",-10.745208613613867],["▁blogger",-10.745246972348925],["ive",-10.746534246299284],["▁netto",-10.746759828589695],["▁utseende",-10.747052567971055],["lis",-10.747433452421372],["vest",-10.747584360992642],["▁grensen",-10.747647972131263],["▁jensen",-10.748040044111438],["▁lind",-10.748096873267732],["bri",-10.748452209322975],["▁leker",-10.748569315154125],["▁that",-10.74947527156736],["▁col",-10.75078534922826],["▁mur",-10.750893700960605],["salen",-10.750915352162837],["▁bryte",-10.75108767755355],["▁windows",-10.75109820505558],["vet",-10.751243803260634],["▁roman",-10.7518310280561],["▁scanpix",-10.751961603267253],["mot",-10.752094847709271],["▁fredrik",-10.752133230098725],["▁innvilge",-10.752212840491746],["gulvet",-10.75276133848674],["▁instagram",-10.75278307209861],["bord",-10.75312489286359],["øyeblikket",-10.753789446267508],["pon",-10.7538546384364],["▁inneholde",-10.75391361775899],["mester",-10.75427782242821],["problemene",-10.755102336045828],["spesifikke",-10.755228998625151],["▁hensiktsmessig",-10.755675275987093],["sum",-10.756157054782346],["▁hoppe",-10.75664664381178],["▁samarbeids",-10.756698891345154],["▁amerikansk",-10.756772919490386],["▁haugesund",-10.756857109482093],["etaten",-10.757233763465372],["▁pent",-10.75742984171033],["▁beslutt",-10.757745929114568],["▁krf",-10.757787762645126],["fristen",-10.758243022441578],["angrepet",-10.75837352657907],["instituttet",-10.75848683580386],["hy",-10.758531083649835],["▁funger",-10.758980505105349],["▁sta",-10.759200327924743],["kin",-10.759243438019],["▁myk",-10.759866467524253],["bygging",-10.760251148101924],["regelverket",-10.760303450283493],["▁hamar",-10.760559008981964],["▁rute",-10.760865713039047],["▁klassen",-10.76121585698268],["sarbeid",-10.761826535718356],["aks",-10.761971917937103],["▁poker",-10.76201235782762],["▁mangfold",-10.762512135186968],["nedsatt",-10.763097676640978],["▁særskil",-10.763219768472158],["▁love",-10.763283797041575],["aktivitet",-10.763332512391507],["ving",-10.763541524482354],["▁studien",-10.76388231286965],["▁spe",-10.764095919156588],["høyde",-10.76447451737105],["▁tempo",-10.76538923713046],["forskerne",-10.765575794968145],["▁infrastruktur",-10.766043381045671],["▁skadet",-10.766089173257994],["seth",-10.76632857729196],["satser",-10.766357150105362],["▁uk",-10.766955494830205],["▁forsvars",-10.767360877158172],["splan",-10.767573513835602],["▁seksuell",-10.767678300219965],["▁stemning",-10.767951343746091],["▁pil",-10.768090366134317],["▁leger",-10.768115934658546],["▁junior",-10.768734540090456],["▁bioteknologis",-10.768837248134796],["time",-10.769139018033565],["▁bud",-10.769468320439596],["helse",-10.769748235905666],["bekreftet",-10.769868738362502],["hall",-10.77043517997792],["▁åpning",-10.770598142213265],["håpet",-10.770780306131307],["▁scene",-10.770920709329689],["▁russisk",-10.770982342894802],["▁australia",-10.771169696794706],["▁kilo",-10.771231374817964],["▁kjell",-10.771238475770632],["ideen",-10.771247163255527],["kommunisere",-10.771425104870556],["budsjettet",-10.771924459039903],["ill",-10.772650760255658],["▁protein",-10.772879034022186],["▁mønster",-10.772914839374682],["vedtaket",-10.774401821646546],["problemer",-10.774516072996184],["▁lesere",-10.774552164165124],["prioritere",-10.774611739761609],["▁kjennskap",-10.774683449353432],["▁tungt",-10.774737338098095],["▁henrik",-10.77498633404752],["▁may",-10.775287593782249],["▁nåd",-10.775381424863518],["▁krigs",-10.775395885218026],["finn",-10.775982436466082],["▁engang",-10.776007696356537],["▁skudd",-10.77606558323118],["▁oppvekst",-10.77675300348059],["▁museum",-10.77680022169736],["▁håndball",-10.776977903692542],["▁mister",-10.777051465545016],["født",-10.777101643677284],["▁utfordre",-10.777485339509209],["▁visjon",-10.77780849097724],["▁samtaler",-10.778433058429776],["▁this",-10.778527854459057],["ight",-10.779179341483037],["effektive",-10.779581296898122],["▁stilt",-10.77975949163815],["www",-10.779786769099244],["blant",-10.780330980489945],["daglige",-10.780692191724448],["homofile",-10.78083048596196],["▁elektro",-10.78136420553675],["▁bal",-10.781368735450425],["▁regelverk",-10.7819792312669],["▁raske",-10.782071258649678],["▁investerings",-10.782115281035551],["rac",-10.782546874264666],["▁pleier",-10.782721174652073],["▁holdes",-10.78302844801066],["våg",-10.783099863373511],["spillet",-10.783354804038652],["▁ac",-10.783532586092925],["perfekte",-10.783538202068208],["neppe",-10.78357631105327],["▁holdning",-10.783944384255364],["▁intern",-10.784322933817052],["ninger",-10.7844088283252],["▁kontakte",-10.78446360167445],["▁arbeidsplasser",-10.784869753114306],["ringen",-10.785382301851996],["rens",-10.785510278205308],["▁barnevern",-10.785654854635576],["punktet",-10.785777818196989],["▁forklaring",-10.786474074568394],["stoff",-10.786489578843192],["▁kosthold",-10.786521557447244],["▁show",-10.786667188297436],["inne",-10.78680663283633],["studere",-10.786896576427768],["▁thailand",-10.786936536951355],["kortet",-10.787092200106242],["toget",-10.787862590888436],["telefonen",-10.787879280960835],["▁perioder",-10.788478478043968],["kart",-10.788586671015482],["▁gaver",-10.788854139845617],["▁japansk",-10.78903126059709],["▁endres",-10.78912048880993],["▁landbruks",-10.789132626543555],["▁garanti",-10.789191159555289],["▁tør",-10.78946014544799],["▁tunge",-10.789651112666515],["▁tendens",-10.790154619581036],["lus",-10.790209127221807],["▁flyktninger",-10.790253555373424],["▁hall",-10.790399620890469],["▁videreutvikle",-10.79043311497518],["▁dommer",-10.790505778192683],["jenter",-10.790531611862813],["▁sti",-10.790543356447817],["setting",-10.79130927377132],["arbeider",-10.79200491711893],["▁studio",-10.792666922163102],["▁kombinert",-10.793210945972016],["▁behandlings",-10.793409896769498],["stiftelsen",-10.79350441721252],["rum",-10.793577934559208],["▁framover",-10.793647164712024],["way",-10.79398754662265],["▁kontrakt",-10.794088098470048],["▁krise",-10.794819010311665],["▁forhånds",-10.794891322030129],["relaterte",-10.795276433400696],["effekter",-10.795643218927978],["▁akseptere",-10.795800818709033],["deler",-10.79591187911867],["▁forandre",-10.796125003784642],["▁vegvesen",-10.796405373009936],["▁premier",-10.79738828773929],["spiller",-10.797938358602403],["gjengen",-10.797957318346183],["▁stolt",-10.798012927623306],["bedriftene",-10.798118018458258],["lsen",-10.79914355533907],["▁lytte",-10.79916609019036],["ansiktet",-10.799279555550028],["tore",-10.79931796659889],["▁muskel",-10.799593754870092],["senest",-10.79968391330974],["rang",-10.800171441926585],["avdeling",-10.80029616147075],["grepet",-10.800542635378765],["▁regelmessig",-10.800561484192508],["▁klikke",-10.8010570582798],["▁høyest",-10.80111930318191],["▁tilbehør",-10.801240403171834],["▁straks",-10.80176612999198],["▁islam",-10.802097592113206],["▁nedre",-10.80229602799107],["▁utbygging",-10.802489198781958],["komplisert",-10.803104491115016],["veg",-10.8036801073571],["flu",-10.804100326752067],["kåte",-10.804628140598126],["▁behandler",-10.804646542675268],["▁br",-10.804646924364986],["forsøkt",-10.804741171323514],["▁bærum",-10.80552718940906],["▁dansk",-10.805679930733316],["▁arm",-10.806171328232274],["▁gjeste",-10.806241676352572],["musikk",-10.806334939870684],["▁trykke",-10.80654413090266],["▁anonym",-10.806805212979825],["▁ekstern",-10.807246340204882],["▁more",-10.807716717522943],["▁knap",-10.807735358920045],["vil",-10.807793619649402],["▁observer",-10.807924015975068],["▁sanger",-10.80845218955998],["▁administrasjon",-10.808633276868308],["▁original",-10.808978069897],["døren",-10.809288244508217],["▁leste",-10.80930992127391],["▁spurt",-10.80935675805545],["hu",-10.809834633502774],["▁stjerne",-10.810205597994138],["▁representant",-10.810338348453364],["isert",-10.81051405738797],["▁sving",-10.810523629952508],["biblioteket",-10.81073817547452],["ous",-10.811110503216106],["isere",-10.811120300042797],["▁rapporter",-10.81232834258218],["▁risik",-10.8123292667319],["lønn",-10.81244755945598],["▁gjennomsiktig",-10.812487179284352],["sitt",-10.813226416214956],["organisasjonene",-10.81335932847603],["▁sørg",-10.813638807427806],["zz",-10.81368706036478],["▁kjendis",-10.814430300123988],["▁up",-10.814466822553662],["▁akutt",-10.814496286103672],["▁forbedring",-10.814742045155334],["håpentligvis",-10.814902624620704],["▁frakt",-10.815084682152175],["driften",-10.815182475426637],["▁polen",-10.815575030309006],["klubben",-10.815803398779346],["▁medlemskap",-10.815890404256017],["▁je",-10.81615937423704],["hel",-10.816664181725027],["innbyggerne",-10.817048272307986],["▁ram",-10.817057710336098],["▁friske",-10.817120348629338],["▁skam",-10.817499827042838],["▁sl",-10.817837640278643],["klart",-10.817856489151955],["▁home",-10.818249459471454],["▁stopper",-10.81951782666429],["pur",-10.819911613678842],["▁thor",-10.820988836952765],["▁tjener",-10.821026314889346],["▁aftenposten",-10.8216314325899],["norsk",-10.821825989901962],["▁opptre",-10.82219832144671],["øs",-10.822384450761447],["▁last",-10.822522726196118],["▁merk",-10.822644981906446],["▁presset",-10.823709749604944],["levde",-10.824128545484047],["stand",-10.824134728292517],["▁overskudd",-10.825587922331923],["rapport",-10.82589546966857],["san",-10.825899824619505],["▁attraktiv",-10.826682854195962],["slitt",-10.826706502286514],["ledelse",-10.826915766564415],["▁korn",-10.826947200656855],["ius",-10.827680898755151],["enhet",-10.827864580485356],["sch",-10.827896078466493],["noveller",-10.828554580065273],["hendene",-10.828743089817952],["stoffet",-10.828900609857598],["forberedt",-10.82907453531682],["lem",-10.82912894877098],["▁igang",-10.829198737757569],["ball",-10.82942112516106],["ond",-10.82964404331287],["grunn",-10.830055823380423],["▁havne",-10.830386565296417],["▁west",-10.830391709105657],["styring",-10.830658103182378],["▁skritt",-10.831305623496592],["arrangementer",-10.831436761779866],["▁fullføre",-10.831497640114312],["▁overnatting",-10.831642827707448],["fondet",-10.831646181063212],["▁bein",-10.831794457994777],["varig",-10.831800071962864],["bygd",-10.83194238581564],["oppfylt",-10.83194830257538],["▁dokument",-10.832005679534412],["▁forsvinn",-10.832861230245893],["boliger",-10.832928269467564],["stat",-10.833351213142274],["▁dypt",-10.833536459948489],["kulturelle",-10.833831354791506],["holder",-10.834037848787306],["dagbladet",-10.834686374754982],["avgift",-10.834910004754716],["▁sakte",-10.83500780090978],["trives",-10.836179739206488],["gaard",-10.83735654123604],["stift",-10.83743574128014],["alle",-10.837476823193656],["rus",-10.837494018300216],["▁kull",-10.837641284294431],["eslått",-10.837821486325277],["sjekk",-10.837931253607128],["▁garn",-10.837943835928854],["▁konklusjon",-10.83800736105441],["linje",-10.838164163171925],["▁finland",-10.838232212423808],["nære",-10.838241396720854],["▁adgang",-10.838341867627802],["dratt",-10.83857699612374],["fil",-10.83876992097792],["▁rune",-10.838967194835952],["▁hjemmet",-10.839479889840636],["▁tønsberg",-10.83981510972522],["registeret",-10.840301375868645],["▁guttene",-10.840341160894743],["bunnen",-10.840380693239403],["▁kollektiv",-10.840663947835557],["lyset",-10.840996579771843],["▁lyse",-10.84101431967848],["nordiske",-10.841100822827023],["▁sunt",-10.841507732402516],["▁storm",-10.84165854011082],["▁beslutning",-10.841930872975542],["▁ektefelle",-10.842005593917062],["opplæringen",-10.842378288247724],["service",-10.842417247524295],["dekket",-10.842489634201034],["dette",-10.84273863344705],["skapet",-10.84301797402886],["▁robert",-10.843185475814424],["▁erstatning",-10.843361887413227],["▁kropps",-10.84353583670883],["representert",-10.843847093877992],["▁fortjen",-10.843889927599724],["▁drøfte",-10.843954123247128],["agder",-10.844010569715588],["▁fanget",-10.844437499209269],["▁kald",-10.844490905825236],["lesing",-10.844851926986069],["undersøkelser",-10.84487980137839],["berørt",-10.845000980884048],["▁avis",-10.845245400303538],["▁befolkning",-10.845476879282293],["serie",-10.845490011386095],["cu",-10.845549576009072],["▁militære",-10.8456959740341],["▁appen",-10.846439568826971],["tus",-10.846501449437586],["▁larsen",-10.846539190929011],["▁helseforetak",-10.846913288116228],["▁girls",-10.847117065228804],["tiltakene",-10.84737936390999],["▁arbeiderpartiet",-10.847531088930982],["garantert",-10.8475800843857],["`",-10.847631068244548],["bevare",-10.848022595331887],["‘",-10.84802549111036],["johansen",-10.848299145923404],["nytt",-10.849026991959663],["▁dusj",-10.849043981561293],["medisinske",-10.849308324907392],["glemt",-10.849385100741047],["▁parter",-10.84950028600359],["ark",-10.849588168854767],["imponerende",-10.84970761461842],["prøve",-10.85032795268792],["▁aust",-10.851466118381984],["▁ytelse",-10.85201724603042],["møtet",-10.852037624972402],["▁male",-10.852049146500535],["▁mørk",-10.852185761291848],["▁muntlig",-10.852971625451248],["menyen",-10.853252593147676],["behøv",-10.85398612629151],["kost",-10.854239342190468],["off",-10.854285438465954],["ante",-10.854364304018397],["▁rammet",-10.854965838811983],["▁star",-10.854989101387162],["stiftet",-10.8550138908412],["tic",-10.855105165674592],["▁fremfor",-10.855217682586694],["krevd",-10.855754387555864],["▁stopp",-10.85576314898598],["verdifull",-10.856411129948086],["stu",-10.85647996295636],["medføre",-10.856723521337384],["▁trond",-10.85680558022852],["▁sjekket",-10.85740315061762],["bit",-10.85780735441162],["▁tenåring",-10.85854773539842],["▁korrekt",-10.858719925699829],["▁øverst",-10.85880843741491],["samlinger",-10.858887135059938],["▁reist",-10.85897096558504],["fart",-10.858984215968375],["posten",-10.859181257954685],["postadresse",-10.859274638471398],["▁asker",-10.85952175175928],["datert",-10.859780099781828],["struktur",-10.859803828110287],["▁avgjørelse",-10.860273030171683],["tvunge",-10.860617574078788],["båter",-10.86081393920433],["▁jern",-10.861100666249945],["behov",-10.86135468842702],["tankene",-10.861418200616932],["▁bygnings",-10.861499153724258],["programmer",-10.861507690080431],["▁henholds",-10.86158600198871],["meldte",-10.862638465963627],["▁underlag",-10.86275669941516],["reaksjoner",-10.86276350919636],["▁toll",-10.862855462907488],["kra",-10.864090219023243],["▁rek",-10.864127097821354],["▁finansiering",-10.86415493596308],["▁high",-10.864463886781534],["▁nest",-10.86452164578129],["▁epost",-10.864762190199944],["▁tester",-10.864874562570073],["▁undervisnings",-10.86489553994968],["▁dildo",-10.86517535592034],["▁depresjon",-10.865464377296224],["vurderinger",-10.865911635105624],["▁flinke",-10.866367955456882],["fattet",-10.866518597278612],["▁tilrettelegging",-10.866660783708692],["▁moss",-10.86695877071722],["definere",-10.86701815620574],["▁beina",-10.867140555066609],["foretaket",-10.867343741555636],["▁pop",-10.86756061336051],["ons",-10.867641093938063],["▁tiår",-10.868524518530752],["zo",-10.868797314703402],["▁alternative",-10.869209767524664],["▁solen",-10.86921674245054],["▁apps",-10.869589773021296],["hva",-10.869681484576148],["▁veggen",-10.86989816042484],["▁øverste",-10.86997872654438],["▁gjeld",-10.870337745051964],["materiale",-10.870880355301436],["stedene",-10.87130355747835],["▁helsepersonell",-10.871545499803254],["act",-10.871702689502207],["tale",-10.872358753246315],["▁øre",-10.87256139700967],["▁trøndelag",-10.872611595662082],["▁bredde",-10.873462113194067],["▁tilfredsstille",-10.873520054870085],["sjanser",-10.873630895767372],["tiltak",-10.8741089801844],["▁microsoft",-10.874114892413951],["▁høring",-10.874410011706876],["merkelig",-10.874491914593449],["▁pedersen",-10.87461024555206],["terapi",-10.875538751247005],["▁sau",-10.87559803835055],["▁rekord",-10.875601791696033],["▁reaksjon",-10.875655040593244],["▁dukket",-10.875945735502649],["informere",-10.87620617854785],["bussen",-10.876594216527442],["evner",-10.876607711370143],["▁rydde",-10.877845207344045],["▁trakk",-10.878211356788986],["▁magnus",-10.878391638787775],["▁utstilling",-10.87842325008539],["boligen",-10.878549349296945],["ombudet",-10.87879589569012],["eierne",-10.879125942941904],["gleden",-10.879878718146712],["lederen",-10.880374764178493],["ekt",-10.880795967749792],["svaret",-10.881501468409244],["▁rapportering",-10.88152857043335],["▁analyser",-10.881595938200032],["▁flyplassen",-10.881658656293132],["▁håpe",-10.881741795814376],["lid",-10.881848236681291],["▁tradisjonell",-10.882658944558472],["▁bringe",-10.88283064357373],["▁utdannelse",-10.882885574683067],["▁fase",-10.883013115865134],["summen",-10.88326880616914],["▁bakke",-10.883453831721743],["▁statsminister",-10.883456639889811],["▁byttet",-10.883534861150274],["aktiviteter",-10.883707706964495],["undersøkt",-10.883800253557832],["enorme",-10.883960927523294],["skade",-10.884762833131086],["▁geir",-10.88507181746246],["plager",-10.8852630801849],["▁buskerud",-10.88561762706938],["forbudt",-10.8860035395753],["integrert",-10.886366894402386],["▁fyller",-10.886760403676554],["ild",-10.887608880510276],["▁påmelding",-10.887929017257882],["dokumentere",-10.887952924277071],["▁avfall",-10.887954844557118],["▁materialet",-10.888064025844775],["▁tinder",-10.888357650827931],["årige",-10.888383091174958],["tilfellet",-10.888394484617836],["▁gjennomsnitt",-10.88844084114458],["▁utelukk",-10.888516846434458],["ukene",-10.888736746199047],["▁utbytte",-10.889190145104052],["samlede",-10.889197365364256],["▁terje",-10.889208907810056],["klokker",-10.889228548703564],["▁support",-10.889451339460887],["▁omfang",-10.88948179065664],["forelsket",-10.889512142365437],["▁personlighet",-10.88972404599875],["lek",-10.889763192176646],["▁shopping",-10.889917932026949],["▁fullmakt",-10.890145317911342],["modne",-10.89047236233814],["▁lær",-10.891141544984873],["▁seil",-10.891151072336935],["ness",-10.891404281075593],["▁op",-10.89140686503389],["formannskapet",-10.8915844377207],["▁college",-10.891731453033364],["▁konkluder",-10.89195510369343],["▁leir",-10.892117773431014],["▁kne",-10.8927437284132],["▁kostnads",-10.892832136582978],["▁teknologien",-10.892906719482964],["ure",-10.89318674283972],["film",-10.893476976145388],["strekker",-10.893513880862509],["▁kåt",-10.893648094072248],["presenterer",-10.89368445426024],["lån",-10.893804585155625],["strålende",-10.89400990642772],["jevnt",-10.894023038384752],["fullt",-10.894041228057173],["reise",-10.894075969957768],["kjente",-10.894519387144086],["ungene",-10.89486319448674],["nevnes",-10.895222591991264],["innsatsen",-10.895501286557227],["mnd",-10.8958730790302],["▁regjerings",-10.896034511726876],["▁sel",-10.896072486064844],["trær",-10.896304333511308],["deling",-10.897376795437],["▁hjerne",-10.897394950344752],["cent",-10.897446636769365],["▁revisjon",-10.897599178161634],["finansiell",-10.897738050317596],["▁johannes",-10.897990866621496],["legge",-10.898752346093197],["aktørene",-10.898865809292708],["▁fersk",-10.899260119931228],["▁egner",-10.899664761817531],["okk",-10.899952296302],["mos",-10.900063625933402],["▁lukt",-10.90035035078816],["▁lillehammer",-10.900362812434947],["stasjon",-10.901727152432231],["▁tilleggs",-10.902072484845045],["stor",-10.90222502293524],["▁lyn",-10.902291960266345],["▁skyte",-10.902390467264592],["definert",-10.902467143575434],["▁lund",-10.90318033916813],["▁tyrkia",-10.90329558182402],["store",-10.903321792148096],["▁bygges",-10.903413788241844],["▁gram",-10.903501391551153],["estad",-10.903580060827922],["sporet",-10.90391631658897],["kontrakten",-10.904333874203653],["sikkerhet",-10.90444125976043],["▁prat",-10.904533615269214],["stemmig",-10.904633356774116],["skrav",-10.90535404982244],["park",-10.905588479725012],["▁målt",-10.90562115843334],["▁utløp",-10.90567627228508],["rød",-10.906013716287088],["▁reisen",-10.906132207521564],["▁kjennetegn",-10.90644649153444],["arrangementet",-10.90648934346868],["registrerte",-10.906816278866335],["vinduet",-10.907098143459391],["▁beveg",-10.907346984368594],["stevne",-10.90736476952735],["istiske",-10.907430797790628],["▁drøm",-10.90750359433661],["sikret",-10.907801394975214],["produserer",-10.90783833811843],["▁struktur",-10.907915934988994],["▁sha",-10.908097413132609],["▁folkehelse",-10.90840688547026],["▁gjennomgå",-10.908852130326414],["▁nordisk",-10.909301256613324],["▁bror",-10.909413352953612],["tilbakemeldinger",-10.909435285700448],["▁album",-10.909481233804977],["bestemmelsen",-10.90960167323712],["▁business",-10.909708344320933],["organisasjonen",-10.910128399663146],["jord",-10.910193012731034],["hal",-10.910198196877667],["stod",-10.910350875960132],["personalet",-10.910572460041394],["▁nøkkel",-10.910886174768205],["bestemmelsene",-10.911089340878876],["▁marit",-10.911190494887933],["▁ålesund",-10.911543089949772],["dig",-10.911663467896416],["▁kryss",-10.911679167193428],["▁etasje",-10.911740748007254],["▁air",-10.91217368093958],["▁stikk",-10.912383201384037],["fiske",-10.91242026880703],["åring",-10.912473537119949],["▁regional",-10.912733367216855],["partiene",-10.912837367795555],["▁negativ",-10.913073985789412],["modus",-10.91316851573576],["utdanningen",-10.913313410444662],["▁verk",-10.913380359480252],["prinsipper",-10.913473095773242],["▁stk",-10.913482871257097],["bart",-10.91352701123566],["▁skolene",-10.913637206323646],["avansert",-10.913701056425143],["▁smarttelefon",-10.913732797046038],["abel",-10.91379078375941],["▁posten",-10.914585206746862],["angitt",-10.91491122522629],["https",-10.91501981066213],["▁humor",-10.91504778459321],["nik",-10.91523799306419],["▁likestilling",-10.915798543651588],["hjemmelaget",-10.915861257209915],["▁rein",-10.91634209728257],["flo",-10.916493160335348],["tidspunktet",-10.916580821815646],["månedene",-10.916612662114044],["religiøse",-10.916706280370803],["himmelen",-10.917241178876967],["▁plate",-10.917338211621246],["▁kopi",-10.918482229336965],["tabellen",-10.918967662004276],["kampen",-10.91899641194857],["▁cd",-10.91914289312465],["gjenstander",-10.91938278008936],["jen",-10.919510667652114],["▁mikro",-10.920091011696485],["▁stilles",-10.920547983009024],["kandidater",-10.9206549324713],["kontrollutvalget",-10.920657784607643],["profilen",-10.920708765391216],["▁regjeringens",-10.921227461800203],["slaget",-10.921486461141654],["tradisjoner",-10.922011004473871],["omgivelser",-10.922489665753652],["blogg",-10.922507603586352],["testen",-10.922742278390722],["aktiviteten",-10.922816798549372],["dokumentert",-10.922884016445646],["mobbing",-10.923174708248633],["kjendiser",-10.92368512784742],["▁definisjon",-10.923734823872037],["sjø",-10.92387964063973],["lik",-10.923985437859876],["▁samleie",-10.92432731226091],["▁passord",-10.924383151667916],["utsettes",-10.924574233338884],["▁valuta",-10.924648476230564],["▁oppvarming",-10.9248739086984],["▁tilsi",-10.925191166190295],["▁inspirere",-10.925454829212969],["▁dø",-10.925671488026357],["▁sjokolade",-10.925877868897258],["▁hol",-10.92591358656428],["ford",-10.92648827000236],["▁mennesket",-10.926499576257251],["▁avheng",-10.926796482188738],["▁munn",-10.926936172791368],["oppgjøret",-10.92711541972381],["vurdering",-10.92718642270093],["▁hordaland",-10.92721878802342],["list",-10.927344038678497],["▁blad",-10.927445281979768],["с",-10.927488302123516],["skudd",-10.927712018736184],["▁mu",-10.927857276388623],["cm",-10.928205005294062],["▁fiskeri",-10.928733659334211],["▁net",-10.929090107954174],["▁jordbær",-10.929279238786773],["brukere",-10.929678455105138],["kveld",-10.93016517829672],["dato",-10.930862972115596],["▁handlet",-10.93124074534958],["▁lade",-10.931294284189342],["▁revisor",-10.931590265030716],["▁maskinen",-10.93163482851931],["▁out",-10.931827412129076],["▁havnet",-10.932184746447772],["▁servert",-10.932256086872608],["økningen",-10.932287704435334],["▁kaldt",-10.932715093353725],["ordinære",-10.93290743941724],["▁gjelde",-10.933012078781084],["revidert",-10.933172991406051],["▁nyhets",-10.933237284465992],["lum",-10.933286810602214],["▁takke",-10.933301763983026],["team",-10.933392381689982],["▁iran",-10.93361161495004],["▁grand",-10.93410431487015],["▁turn",-10.934290059932303],["▁protokoll",-10.934425642651073],["▁motstand",-10.934535235472474],["▁bekrefte",-10.934852753390954],["sykehus",-10.934875583505528],["▁snill",-10.935029065516645],["▁atferd",-10.93539977487302],["▁eøs",-10.935429178084489],["klipp",-10.935825567973966],["cia",-10.936001638566577],["skapte",-10.93612326975494],["▁fan",-10.936196381188823],["skriving",-10.936638496493686],["kjør",-10.936889826419195],["bl",-10.937248954622897],["▁rep",-10.937338124442032],["møter",-10.937348430924356],["▁utfordringen",-10.937424092063504],["spiste",-10.937439311461349],["berømt",-10.93779027710216],["▁grønt",-10.93793309372273],["▁undertegne",-10.937985430897864],["styrets",-10.938033069198015],["▁bonde",-10.93836333021767],["arm",-10.938431905538186],["▁kim",-10.938525423847214],["dannet",-10.93878335030272],["intervjuet",-10.938831372111512],["▁yoga",-10.939001042807238],["vokste",-10.939199028878292],["oppdraget",-10.940031943757052],["utstyret",-10.94109350561716],["▁vokst",-10.94137446206506],["sees",-10.941476257082806],["▁melk",-10.94221715988948],["▁svikt",-10.942394709664397],["forlate",-10.942478544526503],["nettsteder",-10.942519599774148],["▁ref",-10.942679910927575],["▁angst",-10.94297453890006],["krefter",-10.943414286132375],["▁bety",-10.943552324877096],["▁rehabilitering",-10.944185541592253],["▁th",-10.944565276882209],["lister",-10.9446458434137],["▁hopp",-10.94466870614504],["montert",-10.944672566989652],["▁engelske",-10.944707896309778],["▁journalist",-10.9448441225856],["passende",-10.944929028286095],["▁lærings",-10.944961737730535],["ola",-10.94504884854269],["▁base",-10.945110157319142],["▁don",-10.945118343795816],["åsen",-10.945274140955568],["slappe",-10.945459689667638],["forekomme",-10.945665740439306],["▁miljøvennlig",-10.945769450798664],["▁elektrisk",-10.9459923248034],["modell",-10.946220785211452],["▁inkludere",-10.946415299266931],["▁minutt",-10.94658915740195],["▁funksjons",-10.946663834974611],["lege",-10.946947084641842],["▁styring",-10.94719575018264],["etisk",-10.947355247698448],["▁united",-10.947361949372072],["▁våt",-10.947746850017245],["▁organisere",-10.948146000681394],["forpliktelser",-10.9482058961425],["▁mas",-10.948231746747348],["elektriske",-10.948540742616402],["las",-10.948554037293803],["utsatt",-10.94894171524393],["oppdrag",-10.948956295224631],["▁kreative",-10.949343949481742],["▁feste",-10.94950559962738],["▁institusjon",-10.949640852078566],["▁hvitt",-10.949648392641889],["▁kutte",-10.94996296485189],["▁kat",-10.950195476280587],["gjør",-10.950222057432564],["bibelen",-10.950318462872724],["▁tørke",-10.950518777828089],["▁sub",-10.951349697097726],["▁dans",-10.95198651357166],["kre",-10.952034462973051],["▁forbruk",-10.952270054748809],["pasientene",-10.952526454764149],["▁fokuser",-10.952883419108302],["▁eiendoms",-10.952908662963344],["▁samliv",-10.953182104436902],["bank",-10.953522455198508],["▁fyll",-10.953797841513088],["erklæring",-10.95389945022032],["forutsetninger",-10.953949474344425],["møtene",-10.953994974706516],["che",-10.954057088613354],["klassen",-10.954170422310384],["▁pålegg",-10.954220961340324],["▁medisiner",-10.954229662174562],["din",-10.955030685414393],["timen",-10.955093658573638],["innhold",-10.95513610184531],["spillene",-10.95522040516776],["▁danne",-10.955361310397324],["▁folket",-10.95546518992602],["▁takle",-10.955514138680789],["▁bygde",-10.955788609065086],["obligatorisk",-10.9564216899419],["slått",-10.956524481545822],["penger",-10.956994410572545],["leiligheten",-10.957454455463646],["kanaler",-10.957860378281008],["▁import",-10.957885382326454],["▁alminnelig",-10.958376268203397],["wh",-10.958409131589235],["sannheten",-10.958820229986609],["samlingen",-10.95903387969889],["▁interne",-10.959132827873232],["▁romsdal",-10.959162313328084],["varslet",-10.95919622251214],["utstyrt",-10.959204727240069],["▁søster",-10.959375692224276],["▁referat",-10.95964274425616],["lett",-10.959854397455173],["▁ola",-10.959860671335935],["interesserte",-10.960764290974277],["▁åpenhet",-10.96104487853446],["▁line",-10.96105169542504],["bygget",-10.961376263494536],["kameraet",-10.961502254085849],["▁tverrfaglig",-10.961888999234866],["▁planter",-10.962228979272275],["▁hobby",-10.962267631329476],["samling",-10.962521410012505],["▁påvirkning",-10.96264956486718],["operasjoner",-10.963036614703274],["kontor",-10.963462165595544],["uheldig",-10.963515547628855],["klassiske",-10.963598409971688],["▁cha",-10.963856011003177],["▁interessen",-10.964490886832392],["sykler",-10.96449435898552],["vestlige",-10.964901040292675],["▁forsikrings",-10.96528615506075],["hø",-10.965480342795887],["vise",-10.965893495958383],["passet",-10.966092828818669],["ville",-10.966619554658552],["▁fugle",-10.966835907506516],["и",-10.967199687702964],["strategi",-10.967273027438424],["▁smerter",-10.96729859199374],["kur",-10.967304471717538],["tåler",-10.967335471296265],["▁usikkerhet",-10.967962054082331],["▁ark",-10.967980357603984],["sto",-10.96809717430498],["▁drev",-10.968259307544852],["elser",-10.968321529413084],["akk",-10.968559745035494],["▁agder",-10.968658050872596],["▁sandefjord",-10.968733264533451],["påvirket",-10.968814284784768],["heng",-10.969058077157742],["erfarne",-10.969105867910066],["▁nettbrett",-10.969168265243177],["firmaet",-10.969226536208394],["▁vidt",-10.969385786435565],["▁forvent",-10.969878748662104],["▁festival",-10.969987508903598],["pakke",-10.970058223197126],["ordninger",-10.970090658283658],["muligheter",-10.970617820905732],["▁singler",-10.97078164143189],["vang",-10.970989877106955],["politiske",-10.971014009028645],["sentre",-10.971258456124916],["▁lev",-10.971624734169556],["▁tegne",-10.971728346654976],["spent",-10.971915713573972],["▁golf",-10.971975384692048],["statistisk",-10.972191192034416],["▁fargen",-10.972191439066975],["▁konsept",-10.972502673804554],["søknader",-10.97315267205517],["nevner",-10.973288940508317],["▁innledning",-10.973605788022844],["▁spa",-10.974048208584458],["▁hørings",-10.974444437827032],["holdninger",-10.974716614936128],["munnen",-10.974827473622586],["▁uni",-10.975803984441226],["møtested",-10.97612977240268],["treningen",-10.976344844633504],["rent",-10.976378255410646],["skikk",-10.97644060999164],["hin",-10.976457268854368],["▁oppgradering",-10.976708851693322],["▁kreditt",-10.976965720015128],["▁straff",-10.97715042664254],["▁hor",-10.977657925042442],["lon",-10.97802048566218],["makten",-10.978096836061397],["▁påske",-10.978112860387244],["▁troll",-10.978163890340252],["▁brød",-10.978644349037609],["bor",-10.9787269685944],["▁cor",-10.979091889061158],["isen",-10.979131517413249],["dahl",-10.979150698434546],["rommene",-10.979273580910188],["grunnlag",-10.979499072418376],["▁stolte",-10.979759304867462],["etrekker",-10.979799579344933],["lagte",-10.980369807338985],["verktøy",-10.980842292936911],["▁misbruk",-10.98087390787857],["▁syria",-10.981447514019177],["kritiske",-10.981500786448004],["▁stabil",-10.981586834185803],["que",-10.981771591715752],["▁cl",-10.98203759599432],["▁swingers",-10.982116273618823],["▁haug",-10.982738680510977],["nyere",-10.98324235209809],["▁syd",-10.983503656686723],["regulert",-10.98356246791104],["fredsstillende",-10.983696153144164],["▁produsenter",-10.984019123940724],["ulykker",-10.984273412483164],["boka",-10.984332092529806],["▁volum",-10.984607574468368],["▁handel",-10.9849774351257],["vitenskapelige",-10.98559905363228],["▁røyk",-10.985618078993207],["vurderingen",-10.98567456598351],["forsikring",-10.985888851672929],["▁bre",-10.986715097632494],["helsetjenesten",-10.987174764644111],["▁talent",-10.987341662602756],["aktig",-10.987670066627825],["våkne",-10.988372362475156],["▁advar",-10.988374558517082],["sand",-10.988415623933475],["nærmet",-10.9889100448314],["▁samhandling",-10.989153150380258],["▁gjenstand",-10.989170932869976],["▁elske",-10.989171475281148],["▁hindr",-10.98952562670273],["lidelser",-10.989721990465204],["▁blanding",-10.989924933594398],["▁deles",-10.989951924231091],["kast",-10.989954360667536],["▁lykkelig",-10.990022887259013],["▁berlin",-10.991126145849746],["medisin",-10.991191509034175],["arbeidere",-10.991228690875436],["▁partnere",-10.991237259245732],["▁varsel",-10.991531024378451],["stil",-10.992073742932682],["▁gunnar",-10.992111739004972],["salget",-10.99226374996557],["lederne",-10.992694198837912],["forresten",-10.99356007841934],["bevegelser",-10.993566150041245],["spilleren",-10.993576383447952],["▁webcam",-10.993872616519846],["lim",-10.994021322361444],["strand",-10.994104895352883],["▁club",-10.994315177418674],["▁traff",-10.99441299599408],["▁quiz",-10.995027549131407],["størrelser",-10.995081606571286],["byrå",-10.995247916262915],["sengen",-10.995516046682276],["blo",-10.99577148291359],["▁tøffe",-10.995985652051347],["ney",-10.996027732903745],["vakkert",-10.996301946621855],["▁hy",-10.996391804496952],["▁redaktør",-10.996482424609711],["▁skien",-10.996641024851744],["▁femte",-10.99673321078764],["bosatt",-10.99705300694701],["▁møre",-10.997109035436212],["sjeldne",-10.997241949101271],["▁forberede",-10.997529184366185],["▁skinn",-10.9977280409646],["kartet",-10.998389289337856],["▁bær",-10.998462719056809],["pkt",-10.998551502881298],["▁soldater",-10.998556539043088],["hovedstaden",-10.99856126956058],["ellen",-10.998760312878629],["▁maskiner",-10.999005586668792],["▁port",-10.999077348200126],["situasjonen",-10.999153723321522],["sittende",-10.999155023350934],["▁ch",-10.999487724764508],["▁slette",-10.999672206225506],["▁strategisk",-10.999682608654764],["▁barns",-10.99996863476749],["rigg",-10.999979777419936],["▁snitt",-11.000167095913662],["overført",-11.000522812733283],["landet",-11.00065869835395],["▁lisens",-11.000757637775465],["▁primært",-11.00105518546224],["▁mobilen",-11.0014601885043],["regler",-11.001524327132604],["▁plattform",-11.001614126650852],["▁mini",-11.002016222717051],["▁støv",-11.002539468021617],["▁fravær",-11.003045200209163],["▁rust",-11.003214053253876],["solgte",-11.00336535164206],["endrer",-11.003802610902476],["▁fremmed",-11.003831658027517],["undervisningen",-11.00386262642524],["status",-11.00394325191298],["tradisjonelt",-11.004019063197994],["▁kok",-11.004320141099372],["hellige",-11.004683426345856],["▁drøy",-11.00515886341745],["bet",-11.005172582470347],["oppskriften",-11.005172835876332],["▁styrer",-11.005260162084031],["▁lengst",-11.005442924171136],["▁strøk",-11.005759968661453],["▁videoen",-11.005797207589948],["ram",-11.005839588802813],["forvaltningen",-11.00600789182445],["løft",-11.006123638933069],["▁hilsen",-11.006771992682312],["▁arve",-11.006829454062458],["▁kø",-11.007246566530483],["uke",-11.007369324561854],["▁grov",-11.007531379227236],["trafikk",-11.007737239275208],["▁gård",-11.00800391501813],["diskutert",-11.008297230014248],["ã",-11.008537421176433],["vask",-11.008762481849184],["fasen",-11.00892348057928],["forvaltning",-11.009016289738254],["▁støttet",-11.009367210344683],["▁afrika",-11.009764628405131],["▁kartlegge",-11.009854922030453],["morgenen",-11.010069125080888],["lokaler",-11.010079085233478],["spredt",-11.010268098202976],["▁bur",-11.010431147208076],["bakgrunn",-11.010557655216966],["▁hals",-11.01085743230573],["▁rense",-11.010891779029562],["spillere",-11.011199119414972],["▁bekreft",-11.011260104036417],["▁rund",-11.011265033666618],["▁livsstil",-11.011323981303608],["hvert",-11.012490375894789],["lukket",-11.012751421495029],["▁rengjøring",-11.012833603761411],["riket",-11.01290911100014],["▁gjal",-11.012921233276424],["pan",-11.013515503794798],["▁arendal",-11.013822037991892],["installere",-11.013840200151314],["▁fulle",-11.01389187052803],["dommer",-11.014089011653184],["▁fat",-11.014114333929813],["▁ver",-11.014195471406476],["▁hjal",-11.014331581477553],["datteren",-11.014342297935984],["▁fylke",-11.014602370365568],["▁marine",-11.014687972005111],["utviklingen",-11.01469016202348],["ledere",-11.015079302478744],["▁skjøt",-11.01575232854319],["▁gjennomfører",-11.01581684031079],["▁bryter",-11.016012557693456],["trinn",-11.016085616769168],["▁android",-11.016631794603455],["merket",-11.016725293519652],["▁tørre",-11.01678800098892],["▁angi",-11.016967566808798],["srud",-11.017279461062856],["▁kunstnere",-11.017464578673415],["▁relasjon",-11.01764028208537],["▁teknikk",-11.019270686961804],["legemidler",-11.019294067126973],["avgjørelsen",-11.019770340680262],["▁sku",-11.019802357168146],["sø",-11.019935436103763],["funksjoner",-11.019947790120376],["ska",-11.020168452761633],["døgnet",-11.020411780482998],["▁studiet",-11.020686611803498],["hei",-11.020726067610587],["▁pressemelding",-11.02085096578296],["▁taler",-11.02109357775686],["▁pin",-11.021124257048012],["▁blogge",-11.02139528511752],["▁internt",-11.0214776851836],["utgangen",-11.021829880568712],["▁oppdragsgiver",-11.021908752743252],["▁løv",-11.022196110853162],["▁falle",-11.022374098407475],["▁personell",-11.023038538521064],["elsket",-11.023526567389338],["▁sivil",-11.023877352829532],["lesning",-11.024451189671636],["▁bygging",-11.024466291446132],["▁sexleketøy",-11.024694082489052],["▁lim",-11.024721649811564],["imponert",-11.025306678980233],["sakene",-11.02546868415038],["kategorien",-11.025633119418396],["▁graviditet",-11.02593967518871],["▁gammelt",-11.025953994444867],["▁forbud",-11.026234189482937],["▁parkering",-11.026560590768932],["jø",-11.026816595985714],["nakenbild",-11.0270895535046],["▁friluftsliv",-11.027607287311254],["kommisjonen",-11.027862662498409],["▁skr",-11.027868379495608],["kunnskapen",-11.028187992346254],["▁stykke",-11.02841301939828],["bivirkninger",-11.028470674767954],["individuelle",-11.029541193320892],["unødvendig",-11.029549437517703],["▁kontroller",-11.029922778003185],["▁barnas",-11.030096210567509],["▁kul",-11.030115982507152],["▁shemale",-11.030519342433092],["▁kode",-11.030883238978712],["mas",-11.031222560411113],["ismen",-11.031530664086088],["anger",-11.031709729456836],["▁generalforsaml",-11.031727283941471],["▁hekte",-11.031997730482123],["▁bånd",-11.032191685231346],["spist",-11.032325708041627],["styre",-11.032528570258542],["fornuftig",-11.03283837183334],["henvendelser",-11.032971202626436],["▁larvik",-11.03345520233412],["▁carl",-11.03374777051547],["▁fjær",-11.033983619108882],["▁uttrykke",-11.034070004866868],["korea",-11.03412739436276],["▁pizza",-11.034343557786745],["▁evig",-11.03467038124902],["institusjonen",-11.034916949605073],["▁elg",-11.03499781245276],["▁aas",-11.035038802077056],["hendelsen",-11.035404620765837],["vind",-11.035599188726437],["▁sliten",-11.036052200774431],["timer",-11.036061696073222],["betales",-11.03607691671143],["▁opera",-11.036108043770236],["legging",-11.036215168132482],["▁fotograf",-11.03634553693662],["▁vri",-11.03644723560905],["▁venninne",-11.03660457541248],["vennene",-11.036811139132215],["retning",-11.036938269438478],["▁selvtillit",-11.036953562125625],["▁videos",-11.036986971254317],["▁fordeling",-11.037298501484305],["lærte",-11.037528765192434],["▁strikk",-11.037689132675206],["▁hunde",-11.03786547643576],["▁retter",-11.037990042239423],["▁dekning",-11.038237510647852],["▁statoil",-11.038344555777496],["ama",-11.0383549273772],["bær",-11.038433331998906],["▁opprinnelse",-11.038531032426636],["▁spesialist",-11.038688082223764],["regnskapet",-11.038804812331682],["▁funk",-11.03903860878608],["▁utenriks",-11.039077835352565],["rettighetene",-11.039725724765288],["ending",-11.039795953347523],["arkiv",-11.040126789510843],["asjons",-11.040168417242576],["cat",-11.04046928068666],["navnet",-11.04098527018709],["tida",-11.041004271833437],["▁viking",-11.04138309045318],["årets",-11.041387307572988],["smessig",-11.041413579273971],["▁forfall",-11.042031746890048],["ssb",-11.042039907203158],["dyrene",-11.042170459370595],["▁international",-11.042189838878478],["hør",-11.042710643498248],["▁møbler",-11.043412753001366],["▁beliggenhet",-11.04381279410127],["tyr",-11.043856047949795],["▁snar",-11.04391757283437],["▁tomt",-11.044271664178911],["▁mon",-11.044529298858857],["▁tilrettelegge",-11.044613795117382],["elva",-11.044673481787049],["▁stav",-11.044682829620598],["▁meninger",-11.044927585565222],["▁hehe",-11.04500304274512],["kjekt",-11.045003738128026],["▁følges",-11.045432747956642],["▁vennlig",-11.045523197471526],["ologi",-11.045527986572688],["virke",-11.04576697962379],["▁fastlege",-11.045906491490047],["▁smør",-11.045986323368483],["tterkant",-11.046045123732592],["▁flytter",-11.0460815740138],["hets",-11.04612419124335],["ann",-11.046547434410956],["tider",-11.04682175919404],["god",-11.04704898719532],["▁rektor",-11.047090526267963],["opplæring",-11.047404083201611],["flyet",-11.047803114257391],["▁maks",-11.047902342377428],["avgiften",-11.047912271564664],["▁forlenge",-11.048095493890528],["svin",-11.048197793862252],["nce",-11.048425126207489],["▁artig",-11.04860513901009],["▁pu",-11.04875525070854],["▁tour",-11.049022827505018],["▁led",-11.049059700616306],["fugl",-11.049158993018924],["▁kva",-11.049243814579604],["snivå",-11.049691331681167],["iver",-11.049898383727127],["dals",-11.050019625757608],["lærerne",-11.050276031137374],["ple",-11.05046904478871],["▁jazz",-11.05091296131902],["legg",-11.051190800867548],["▁begrep",-11.051539444089954],["▁telenor",-11.051570684018612],["toppen",-11.05168460426397],["ideell",-11.05177331777082],["▁forening",-11.051833047183589],["språk",-11.05244802306498],["tips",-11.052551869092513],["▁general",-11.05293421672919],["▁eksport",-11.053096726150844],["person",-11.053307324196842],["statistikken",-11.05342306521504],["▁iverksette",-11.053657083447195],["▁lidenskap",-11.05381768072504],["riktig",-11.054296975272274],["ordene",-11.054714625477406],["▁nilsen",-11.05487060470566],["▁hyppig",-11.055150076667598],["ence",-11.0556496482513],["marka",-11.056082280807315],["▁baser",-11.056083298961427],["register",-11.056478426652436],["▁fasciner",-11.05698434388789],["satte",-11.057106939242418],["▁odds",-11.057122824617371],["▁max",-11.057382461416667],["sammen",-11.057571462835986],["▁cum",-11.058187146022208],["▁søkes",-11.058420458525294],["▁hastighet",-11.058469898412692],["▁skjemaet",-11.058533637843825],["▁nato",-11.05861563428247],["▁mild",-11.058828656718438],["litt",-11.058905880504094],["falske",-11.05915441054312],["▁fornybar",-11.060378329954348],["▁hov",-11.06117432532606],["tilstanden",-11.061398198832144],["fattige",-11.062161818539336],["reformen",-11.062165281687818],["kode",-11.062263377809357],["▁bidr",-11.062426355132988],["bånd",-11.062744863289616],["▁maling",-11.062862984178894],["▁chatte",-11.06288800176193],["avtalt",-11.06303660930366],["oss",-11.063293983300868],["konto",-11.06349869404032],["▁gutten",-11.064255488662477],["angrep",-11.064313563292554],["▁øvelse",-11.064896958870458],["albumet",-11.065381136174352],["▁cirk",-11.065456238435733],["▁vill",-11.065550634304897],["filer",-11.065556203664734],["▁verdien",-11.06572966421913],["▁top",-11.065731790063614],["▁ordinær",-11.065980179843512],["▁satsing",-11.065985927938216],["▁sogn",-11.06607057759211],["konsekvensene",-11.066134474540736],["institusjonene",-11.066319151242054],["fond",-11.06684864027265],["varianter",-11.066972452718597],["▁kritiser",-11.067076252815156],["vennlige",-11.06722265774417],["▁ankom",-11.067263456586057],["▁grill",-11.067282852935271],["▁rulle",-11.067297569558557],["asiatiske",-11.067331510333691],["▁overbevis",-11.067544999887073],["▁spilles",-11.067602896604145],["▁døds",-11.067732693090342],["eksperter",-11.067819516046796],["▁billige",-11.06782067195529],["apparatet",-11.067850144209734],["cur",-11.067887701975296],["lyd",-11.068552248544227],["▁klatre",-11.068617102230393],["use",-11.069040557543463],["▁mari",-11.0693256603395],["kunnskap",-11.069447708880295],["▁ordre",-11.069758079265943],["økonomien",-11.06987710440811],["▁irak",-11.07072238959418],["▁peder",-11.0713625791452],["▁flagg",-11.072250824285122],["▁pleie",-11.0727208684187],["tlf",-11.073123753466875],["▁frank",-11.073229612082256],["▁håkon",-11.073290721470393],["modeller",-11.073358184946391],["olog",-11.073368944334064],["▁rase",-11.07340262065068],["øyene",-11.073987005426496],["▁beg",-11.074026445677532],["▁back",-11.074055023868633],["endt",-11.07451614667978],["bak",-11.074613532120106],["portal",-11.074675411090888],["ryk",-11.075047858959406],["avdelinger",-11.075846417827591],["▁lure",-11.076320243300778],["▁klem",-11.07633011788161],["ice",-11.076419023274427],["▁reparasjon",-11.076560262504742],["former",-11.076750377406464],["▁sarpsborg",-11.077119012496404],["▁oppkobling",-11.07718645551318],["▁hest",-11.077262902199775],["▁kjærester",-11.077348418589043],["▁uttal",-11.077497420705406],["▁sammenhengen",-11.077541680131787],["▁inntak",-11.077809723051134],["▁individuell",-11.078001522350586],["▁kult",-11.078089392971224],["band",-11.078378379808669],["▁begrunnelse",-11.079325109005602],["▁times",-11.079588412071336],["▁̧ˇ",-11.079652177181922],["▁sur",-11.08010472584921],["stall",-11.080223356648174],["▁happy",-11.081172717781184],["ativ",-11.081234995508126],["fordeling",-11.081261812526288],["undervisning",-11.081461123335751],["målet",-11.082130767217777],["seieren",-11.082244874587426],["▁anvende",-11.082282767184584],["▁københavn",-11.08234134570659],["▁hms",-11.082450139034576],["▁jorda",-11.08257410052956],["nettet",-11.08266613491757],["strategier",-11.082691070407115],["afrika",-11.082782798179826],["▁høyesterett",-11.08280498480944],["▁begrav",-11.082912496430154],["▁refleksjon",-11.083094963886383],["▁engasjer",-11.08318900569322],["ping",-11.083290972894297],["▁skilsmisse",-11.083389093292698],["▁havner",-11.083537206616494],["▁møt",-11.083739174949017],["▁laks",-11.08381468821952],["▁rådgiver",-11.083848882312454],["øk",-11.083909615122725],["ordnede",-11.084094367049266],["▁verd",-11.08425088268412],["▁avslapp",-11.084268942880406],["rettet",-11.08506167955389],["leir",-11.0856570675479],["▁samspill",-11.08568740262854],["skuffet",-11.08570525269139],["aksjonen",-11.085750857173329],["▁intet",-11.086532753356224],["▁tilsynelat",-11.08658913614356],["plater",-11.087073268366604],["▁samles",-11.087263674330362],["bus",-11.087463121793636],["foten",-11.088072381833586],["pre",-11.088148678680128],["web",-11.088175013280631],["utgiftene",-11.088344599178752],["▁kalde",-11.0886354416065],["anser",-11.08884424384148],["invitere",-11.088892709399168],["▁green",-11.089043602162],["barnevernet",-11.089245077357274],["forhindre",-11.089333562794824],["▁velferds",-11.08980985970337],["▁arbeidstid",-11.090098141383423],["gangen",-11.09025117432374],["▁vitne",-11.090581195827474],["▁wal",-11.09068189272304],["▁savn",-11.09070447030978],["tekst",-11.090917649753068],["▁homo",-11.090987173889213],["følge",-11.09100541169574],["▁dia",-11.09143639350917],["fast",-11.09143826402263],["eksterne",-11.091487581479797],["cal",-11.091826311327088],["kanalen",-11.091956786305694],["avtaler",-11.092070137956323],["▁bryst",-11.092353185079697],["▁oppdager",-11.092567793676714],["drag",-11.09292796351988],["oppgaver",-11.093053056013003],["▁hør",-11.093232246993136],["vansker",-11.093372578927566],["eier",-11.093724205391064],["agen",-11.09409721766218],["planen",-11.0943445783268],["maskin",-11.094563850826749],["vinneren",-11.094956235452589],["▁sårbar",-11.095006361155974],["▁rabatt",-11.095132972723414],["orientert",-11.095201587440124],["priser",-11.095471952456425],["▁presis",-11.095743189439853],["▁argumenter",-11.095904271139712],["tropp",-11.09593752808187],["farlige",-11.095993465713452],["▁anbefalinger",-11.096055689119966],["operasjonen",-11.09618394149168],["▁sminke",-11.09644260160558],["▁forandring",-11.096488823224275],["▁inntekts",-11.09654935279883],["studier",-11.096664364290277],["tilrettelagt",-11.09672158100306],["▁sil",-11.096859295950209],["▁norden",-11.096864976167469],["detaljert",-11.096870111435564],["▁produsent",-11.09700943770352],["bekymret",-11.097014285061288],["dokumentet",-11.09721860982361],["▁sopp",-11.097317555550273],["▁daniel",-11.097318008292037],["▁skjær",-11.097377924249168],["administrative",-11.097414356985762],["partner",-11.097916738437297],["ida",-11.097923580754324],["▁lagret",-11.0979345732667],["▁material",-11.098369794368317],["koblet",-11.098575185738966],["▁innendørs",-11.099104877147951],["▁gyldig",-11.099318280378556],["▁oppsummering",-11.09951482231004],["university",-11.099867648948374],["tilskudd",-11.099878634361096],["▁uttak",-11.099975189218076],["oslo",-11.100139520479306],["▁tolv",-11.100420088213516],["▁montering",-11.100868295392662],["ó",-11.101120531396411],["▁war",-11.10178389384816],["tillitsvalgte",-11.101882388474191],["▁she",-11.10189792260655],["▁sammenligning",-11.102178697481326],["▁opprør",-11.102511325821032],["▁kommenter",-11.102654407812947],["virkemidler",-11.102671362533815],["nemnda",-11.102825089325036],["ach",-11.103418566587138],["▁kylling",-11.103781469649489],["sje",-11.10426376735188],["forstått",-11.104658062333192],["▁overgang",-11.104676430335845],["bad",-11.104858297315596],["etnisk",-11.10492730244414],["seriøst",-11.105111418146915],["kunst",-11.10524446411126],["▁stockholm",-11.105548350689777],["derfra",-11.105566838940804],["lesbiske",-11.105655627087284],["ick",-11.105739730869765],["▁badet",-11.10585277600939],["van",-11.105898883566317],["▁kategori",-11.10609784021494],["▁blikk",-11.106380881986404],["ente",-11.106552428742653],["▁myr",-11.106725192980509],["▁aktivitets",-11.106887567122197],["▁eiere",-11.107036199415498],["▁plassere",-11.107350521017093],["▁jonas",-11.107425818356576],["▁uro",-11.107498262034884],["turneringen",-11.10800462335022],["▁himmel",-11.1081120633562],["stolen",-11.108230456775711],["▁omsetning",-11.1084740179295],["▁håndtering",-11.108608278955789],["▁uttalelse",-11.108778265412663],["low",-11.109237463357893],["▁utleie",-11.109270171434911],["betydningen",-11.10990880182241],["sikkerheten",-11.109958786444327],["fargene",-11.110017394160728],["følelse",-11.11006370849574],["▁kvinners",-11.11070217805505],["datamaskinen",-11.110909081044207],["▁have",-11.1109784494903],["pel",-11.111076996302955],["show",-11.11117447096591],["▁oppskrift",-11.11124236568226],["stykker",-11.111396290214488],["▁sann",-11.111722453325418],["▁pan",-11.111912363468544],["▁kutt",-11.111916034535438],["well",-11.112224309087582],["\\",-11.11225551059394],["fortløpende",-11.112623047415957],["fylket",-11.112642718297083],["glipp",-11.114402983268244],["▁trend",-11.11440817995288],["▁drama",-11.114534258457054],["▁revisjons",-11.114619545067026],["mail",-11.115062258569946],["▁spar",-11.11511189195972],["▁sykle",-11.115573136086354],["▁boks",-11.115734293050991],["late",-11.115918383713938],["▁fødsel",-11.116539565930813],["blad",-11.11700381509803],["▁sykepleier",-11.117342198935264],["timene",-11.117476343903505],["▁plukke",-11.117581853142951],["▁einar",-11.117751113545223],["▁vedta",-11.11791868571918],["▁strenge",-11.118231310683989],["▁element",-11.118368864261804],["▁arkitekt",-11.1184461187322],["▁oppland",-11.118506068429422],["negativt",-11.11866632660694],["▁løst",-11.118700404616058],["skjær",-11.118779093599017],["ssen",-11.118847396238255],["festen",-11.118857188151098],["hild",-11.119364394272717],["▁kule",-11.119397680604033],["▁eva",-11.11977835751047],["tegn",-11.12028567621931],["▁tvangs",-11.120601967411323],["▁tape",-11.120699720136962],["▁krets",-11.120810981495293],["ledige",-11.120851769454148],["kapasitet",-11.12114394750283],["▁demokrati",-11.12138950554964],["fett",-11.121514097210191],["▁arbeidsoppgaver",-11.121660569093212],["▁separat",-11.121762036189546],["▁føde",-11.121817344086756],["mai",-11.121868673038342],["▁bodd",-11.121969715993398],["▁forebyggende",-11.122116448281597],["qui",-11.122161181863811],["mol",-11.122188673729967],["voksende",-11.122388989591276],["luft",-11.122442215044831],["kolleger",-11.12252022620051],["▁konstant",-11.122683506952152],["skal",-11.122898961919653],["brevet",-11.12299930439264],["▁refusjon",-11.123027096764998],["▁sig",-11.1236843217406],["danner",-11.123903690540956],["skjema",-11.123959673415586],["tøy",-11.12396117091802],["▁asia",-11.12400904022068],["opplevelse",-11.124088683448091],["biter",-11.124236197724205],["cin",-11.12460914769708],["søy",-11.124753590375956],["field",-11.124818607187724],["▁heve",-11.124910552458523],["planene",-11.12495685272299],["sprogram",-11.125011877756954],["ritt",-11.125041399557247],["vesen",-11.12518306625615],["merker",-11.125374575100937],["pekt",-11.125785759536011],["leverandøren",-11.12584811907689],["politikerne",-11.125958848603148],["▁parkeringsplass",-11.126130637393336],["▁fisken",-11.12613299465668],["▁skuespiller",-11.12651122657451],["▁rekruttering",-11.126831298024008],["dataene",-11.126929525254443],["▁ruter",-11.127167310281598],["▁forårsak",-11.127691283375272],["▁svake",-11.128178043660611],["maskiner",-11.128412755152397],["kos",-11.128992098264703],["▁registrer",-11.1290267876246],["politisk",-11.129162484803846],["bjørn",-11.12917315732807],["▁obs",-11.129523583180823],["▁michael",-11.130297999503677],["▁svømme",-11.130408592084484],["▁innkalling",-11.130473319705098],["▁bist",-11.130539486895328],["hard",-11.130678190909125],["damene",-11.130864693476257],["forhandlinger",-11.130877078842294],["veier",-11.131002528875545],["komne",-11.13109142919257],["treff",-11.131159353156688],["måte",-11.131173115663987],["▁polsk",-11.131316877948946],["▁bland",-11.13144184210492],["▁smitte",-11.131446536253083],["▁arkitektur",-11.131502074580093],["datoen",-11.131892717082527],["í",-11.131920960397087],["menneskelige",-11.13213042641565],["▁chi",-11.132244577529685],["kronisk",-11.13236240728049],["amme",-11.132436053247377],["▁tøy",-11.13292494422758],["haugen",-11.133369977015192],["▁økologisk",-11.1335440778778],["▁group",-11.133745383901408],["▁flyktning",-11.133770031443886],["indiker",-11.134053638447],["▁kundeservice",-11.134298854672751],["▁respons",-11.13461412911288],["▁moden",-11.135023043078776],["▁nærhet",-11.13525135900626],["▁inf",-11.135504056413248],["appen",-11.135616813440176],["forskningen",-11.135868382836748],["anerkjente",-11.136014029233928],["bal",-11.136121443084576],["bre",-11.136195485764285],["landskapet",-11.136394107763534],["▁dok",-11.136542318576758],["▁kvitt",-11.137162295075594],["▁havn",-11.137352676363037],["ulykken",-11.137568920261218],["▁mottak",-11.13789942871209],["▁ras",-11.138277141471413],["▁tynn",-11.13839090823315],["stilt",-11.138494320487158],["▁motoren",-11.138588640762796],["▁installasjon",-11.13863887246262],["vannet",-11.13868799321646],["▁blind",-11.138793146918632],["forbruket",-11.139157224033184],["▁sorg",-11.13926877095332],["omgivelsene",-11.139606903734066],["▁legemiddel",-11.139657776255106],["▁nederland",-11.139698290453309],["evne",-11.1398660030769],["▁pålitelig",-11.139941785351862],["▁bydel",-11.139991446431845],["▁nedgang",-11.140066564301875],["▁power",-11.14009080203071],["▁besto",-11.140294067362069],["▁billetter",-11.140400302289288],["▁ingeniør",-11.1404080450017],["drives",-11.14045799920202],["▁kjede",-11.140631599271623],["▁hende",-11.14121305603059],["▁permanent",-11.141292799350234],["▁sannsynlighet",-11.141489004835806],["▁rådhus",-11.141628352726318],["ansvarlige",-11.141705595116216],["plukket",-11.14225396878659],["▁glatt",-11.142309445226395],["▁utvidelse",-11.142339756647903],["ack",-11.142344375128909],["elektroniske",-11.142503765199862],["runden",-11.142839541969272],["ressursene",-11.143148597898769],["statlig",-11.143377580223826],["stopp",-11.143423049345545],["dårlige",-11.143426877055548],["▁fu",-11.143585603516078],["▁gratulerer",-11.143732167970445],["ship",-11.143833297520466],["▁klipp",-11.143992218022118],["▁tildeling",-11.14412457395017],["▁kjærlighets",-11.144661560320198],["fornøyde",-11.14474906699353],["papir",-11.14503194680084],["▁maksimal",-11.145077207795392],["▁trafikken",-11.145576310126112],["låter",-11.145599814938008],["▁nedbør",-11.145662534270306],["rate",-11.14596988852449],["barnets",-11.146026138768676],["▁kristus",-11.14611553685824],["▁revolusjon",-11.146219157882886],["håndtering",-11.146265993719702],["kj",-11.146302944235307],["vinduer",-11.146585075613745],["▁♥",-11.14670106410628],["seriøse",-11.14718516543081],["overordnet",-11.14727452567583],["sur",-11.147431702218604],["sjekking",-11.148222548938476],["▁seng",-11.148620251101134],["sug",-11.148680254886797],["hem",-11.148690570118276],["mme",-11.148780523145753],["▁elve",-11.14889069244416],["▁skiftet",-11.148937902583093],["samfunn",-11.149033280141747],["®",-11.149044756974789],["▁fylkeskommunen",-11.149225906825896],["▁server",-11.149367865461064],["▁journal",-11.149384763506488],["▁slite",-11.149663133122344],["bestilt",-11.150026240501436],["hjem",-11.15054338929392],["ekteskapet",-11.150686958217904],["▁komfort",-11.150738056957792],["betaling",-11.151175032888014],["▁kredittkort",-11.15152265909081],["▁innsyn",-11.151589332590852],["▁wo",-11.152532443725963],["selges",-11.153179861014175],["ary",-11.1532804103331],["gjennomsnittet",-11.153696209304847],["risiko",-11.154102332445303],["tradisjonen",-11.154411943169226],["▁analysere",-11.154477203891954],["▁krem",-11.154635107840845],["regelen",-11.154665765613265],["▁trang",-11.154790116693013],["è",-11.154878895374392],["▁vitenskapelig",-11.155475554961589],["utsikten",-11.155560261354829],["▁rede",-11.155875585563235],["ettertid",-11.156325860814569],["▁styreleder",-11.156865968891127],["▁overflate",-11.156993642286468],["rev",-11.157024052327614],["seier",-11.157499108250022],["▁skjønne",-11.157503433206502],["▁tømmer",-11.15752830244035],["▁kniv",-11.15771378003848],["▁anta",-11.157722175960409],["▁bekymring",-11.157738894272075],["kilde",-11.15795408044141],["treffer",-11.158002579559708],["ansatte",-11.158565456035],["▁sammenlikn",-11.158623966123344],["meter",-11.15889301332818],["ppe",-11.159132381004898],["krets",-11.159281788788164],["luften",-11.15933155078789],["▁roma",-11.15959120243044],["rad",-11.1597709429153],["▁fantes",-11.159814402223978],["▁stole",-11.159827257539632],["oppleves",-11.159843116769013],["▁regulere",-11.159963444907705],["juridisk",-11.16005068099282],["▁høyden",-11.160429428904717],["▁mangle",-11.160600734956189],["▁frø",-11.160946787847218],["▁ledig",-11.160971377313963],["▁che",-11.161086979375218],["▁innbygger",-11.161336295780584],["▁forsvare",-11.16138602683136],["glede",-11.161528250557556],["▁sund",-11.161600376297333],["▁gjennomsnitts",-11.161972606189195],["▁tingrett",-11.162058126816207],["vegger",-11.16206185757384],["retningslinjene",-11.162221742799757],["▁kona",-11.162538997900208],["formål",-11.16264975022255],["▁fakultet",-11.163026682564306],["vas",-11.163226599816849],["▁hellas",-11.163451866239011],["handlingen",-11.163625187219155],["gjennomføringen",-11.16381278218732],["klærne",-11.163843449012894],["▁espen",-11.16402415932695],["svar",-11.164229048604073],["holdsvis",-11.164560617065904],["▁stadion",-11.164621031768949],["jar",-11.164700345641464],["ric",-11.164772801866716],["amerika",-11.164939880114044],["verktøyet",-11.164963015319993],["setning",-11.165561396489752],["fanger",-11.165571927129363],["▁enighet",-11.165695614218787],["ink",-11.165757679943908],["halvdel",-11.165921470704276],["sco",-11.16596210316028],["kampene",-11.165976906114784],["pin",-11.166043880957153],["▁eus",-11.16612307053323],["▁vev",-11.166230494070833],["fabrikken",-11.166338159163494],["journalister",-11.166383361734628],["▁innvandrer",-11.166452831719182],["▁brit",-11.166596149928376],["neders",-11.166736047156055],["plo",-11.166993250650243],["▁frie",-11.167471843488078],["sangen",-11.167620331290577],["nic",-11.167786499738554],["inntektene",-11.167884664833675],["▁allmenn",-11.168238329104064],["▁arv",-11.168402852915117],["avgifter",-11.168722475601848],["skip",-11.168940795740689],["▁emne",-11.169112881873852],["▁tittel",-11.169142089542827],["asje",-11.169187825783066],["vakt",-11.169299804009755],["investere",-11.169574498830466],["nivåer",-11.169617460548128],["konseptet",-11.169671794203008],["▁samisk",-11.169929889605982],["orm",-11.170221305996046],["▁arbeidskraft",-11.170712455051738],["ssystem",-11.171725183362534],["ugg",-11.171960950785264],["situasjon",-11.172287698942297],["innhente",-11.172326572537],["enge",-11.172340837567914],["▁ube",-11.172406999388429],["▁brukernavn",-11.172565099599874],["▁temperaturen",-11.172634226463035],["isteden",-11.17276114812366],["▁søppel",-11.17318960597674],["magasinet",-11.173482947194492],["beskrivelse",-11.17393265245079],["kke",-11.174020958473225],["▁ivar",-11.174041212109078],["▁svangerskap",-11.174087996091057],["▁runder",-11.174383148740436],["bekk",-11.174429555049167],["▁episode",-11.174584412595676],["trekkes",-11.17487773904604],["nettverk",-11.175128001452077],["▁veileder",-11.175623620590889],["muslimske",-11.17575207317275],["▁innslag",-11.175881937783762],["▁polar",-11.176009347977889],["runde",-11.176183050037158],["jel",-11.176338911528402],["praksis",-11.176406216044084],["▁event",-11.17661017229937],["е",-11.176697709837676],["▁forsvar",-11.176716782531246],["▁trådløs",-11.176862209715036],["▁matchmaking",-11.176891575995654],["▁løype",-11.176922926734369],["▁sc",-11.177120114709892],["sonen",-11.1773624809],["justere",-11.17737786518213],["▁tapet",-11.177398593567036],["▁ubehagelig",-11.177491706488336],["lang",-11.177501773842394],["hagen",-11.177927905331437],["fal",-11.178278951105414],["studie",-11.178303354660905],["skapende",-11.178383517760226],["▁trykket",-11.17852880420234],["sprosessen",-11.179024757300027],["produsenten",-11.179150869989003],["kjøttet",-11.179171930130034],["innvendig",-11.17927889813911],["blå",-11.179412763783647],["→",-11.179790595716296],["heldige",-11.179811042969428],["analyse",-11.179982789750913],["▁paret",-11.180044688394435],["▁målrett",-11.18020869654232],["▁delte",-11.1802125588396],["kjørt",-11.18022050213962],["grad",-11.180329008545224],["publisere",-11.180510986593433],["▁faktura",-11.18051511260647],["boken",-11.18117494243494],["▁narkotika",-11.181331023091074],["▁savnet",-11.181435143559805],["hånden",-11.181567224428155],["verden",-11.181992898775256],["▁foretak",-11.182004758669862],["emme",-11.18207136806348],["▁prioritering",-11.182098498394724],["▁rutine",-11.18224074432438],["▁gress",-11.182358873261853],["▁sjakk",-11.182543076954968],["▁telle",-11.18273522105873],["hjelpemidler",-11.182757003347072],["årig",-11.182759238918774],["stell",-11.182777900786029],["standard",-11.18291068583044],["dører",-11.183029524940144],["regel",-11.18311061356862],["skilt",-11.183220680542274],["annonser",-11.183326425183234],["▁bibel",-11.183330519092149],["tiske",-11.183377101332145],["▁brygge",-11.183507876694817],["administrerende",-11.18377829849364],["gate",-11.184052191209942],["studenter",-11.18422107914581],["forbruk",-11.184229289420465],["▁bestå",-11.184414477650996],["pålagt",-11.184451776544776],["▁matt",-11.18456348496026],["vekten",-11.185072541627047],["▁pilot",-11.185284483064136],["▁manager",-11.185490281088198],["lapp",-11.1855411808869],["eiere",-11.185631323064584],["kirken",-11.185812019836114],["▁stasjon",-11.185880107992874],["forhandlingene",-11.186075157339074],["stien",-11.186201813882697],["▁knall",-11.18624665592405],["vilkår",-11.186567200605822],["skjerm",-11.186593761396155],["▁fartøy",-11.186715325618373],["▁hverdags",-11.186769503770137],["grensene",-11.187061925795344],["oppholdet",-11.187384487371546],["siktet",-11.187640655702994],["merke",-11.187660404904724],["una",-11.187671449930818],["▁sj",-11.187890138296394],["gjøres",-11.188309388410756],["▁spring",-11.188325754656146],["mestre",-11.188500968823313],["sette",-11.188554520072822],["▁halvt",-11.189141819678731],["spissen",-11.189632413235344],["maker",-11.18984910570792],["skogen",-11.190096478208602],["▁offer",-11.190283706567044],["lav",-11.190382674004692],["▁ferske",-11.19043117969442],["kilder",-11.19052036848563],["truffe",-11.190529708229263],["▁ferien",-11.190615868512891],["restauranter",-11.190658583069672],["▁roller",-11.190690904529305],["døde",-11.190805444764573],["▁por",-11.190926865729322],["▁dype",-11.191676875268794],["størrelse",-11.192070727032464],["måling",-11.192213478272762],["ami",-11.192867546040077],["▁administrasjons",-11.192973637005762],["hor",-11.193309111624734],["ult",-11.19331457631043],["▁skar",-11.193353285973398],["sykdom",-11.193615133948416],["▁tantra",-11.193630285277305],["erna",-11.193686131312752],["settes",-11.194040684215098],["▁alta",-11.194614799958972],["porno",-11.19533331805084],["▁tenner",-11.196124931817488],["kop",-11.196298110820695],["▁takt",-11.196414494624303],["▁oppførsel",-11.196511034044306],["arrangerer",-11.196682824752802],["▁jørgen",-11.196757313731924],["▁seriøs",-11.197074319302418],["nho",-11.197198360817843],["▁rapportere",-11.197268993137206],["▁latter",-11.198106120596991],["ake",-11.198196571175089],["grav",-11.198376160021834],["▁bekjempe",-11.198471740238771],["gler",-11.19851224189219],["▁sone",-11.198617318156428],["restauranten",-11.198795565451553],["samtalen",-11.198890666228614],["prøven",-11.199027842695765],["medlemmer",-11.19921719060642],["hol",-11.1992296664636],["muslimer",-11.19933470280347],["forpliktet",-11.199369303571594],["▁eksklusiv",-11.2000001263162],["▁uttale",-11.200114310607075],["▁dahl",-11.20024846224751],["▁pl",-11.200259913141418],["▁permisjon",-11.20068799947085],["▁liter",-11.200810819398257],["▁herren",-11.20082876552186],["book",-11.201142359710714],["glass",-11.201413822979823],["virksomheten",-11.201418929629456],["▁horn",-11.201454689411491],["ves",-11.201552634790657],["unn",-11.202112278263815],["jakt",-11.20213184188188],["▁gener",-11.202241496070313],["høy",-11.202404840301242],["kontoen",-11.202492167017455],["▁belastning",-11.202583958001169],["▁nestleder",-11.203039129968678],["▁gau",-11.20305714833138],["sofaen",-11.203060360433987],["▁flyplass",-11.203108141748968],["▁anskaffe",-11.203216102953483],["holm",-11.20346894900985],["historien",-11.203572045216296],["vinn",-11.204136588806556],["▁brasil",-11.20428314334132],["▁landskap",-11.204479498606103],["▁iso",-11.20460908529516],["▁trenere",-11.205062834149627],["▁atmosfære",-11.20522733346243],["ekstraordinær",-11.205468757584484],["point",-11.205533178602048],["flytende",-11.205556716603416],["funksjonene",-11.205712329872188],["skje",-11.205733830359222],["▁kriminalitet",-11.205974638356384],["rich",-11.206056464799802],["▁optimal",-11.206083026764334],["kna",-11.20618232832689],["avslutter",-11.206219802009764],["▁emner",-11.206236908137178],["°",-11.206305085143804],["▁referer",-11.206581678376487],["truet",-11.20681417584119],["installert",-11.206884241475285],["key",-11.206963822114162],["▁politidistrikt",-11.2069836324099],["sal",-11.207056936199502],["▁idrettslag",-11.207242804151257],["▁asyl",-11.207574645366904],["els",-11.207895261241296],["▁spiss",-11.208108596588676],["▁make",-11.208179524106264],["▁bot",-11.208295192544536],["▁fornye",-11.208392021582084],["akseptert",-11.20851066878996],["▁ansett",-11.2088081382408],["▁gjenspeil",-11.208838959114782],["▁gule",-11.20887934544906],["bru",-11.209132116742849],["▁bachelor",-11.209477135285413],["▁teknikker",-11.209597374569272],["▁lufthavn",-11.2097156757285],["▁deltaker",-11.20989808946069],["size",-11.210110827935004],["rede",-11.210124959197543],["eieren",-11.210414223937107],["europa",-11.210568692013265],["stuen",-11.210749671589246],["alder",-11.210978353802416],["lengden",-11.211083417542447],["overgangen",-11.211244038928232],["profil",-11.21158309115818],["▁bombe",-11.211692593702592],["mund",-11.211927592875734],["hio",-11.212316700558263],["▁varsle",-11.212646210406014],["▁lagring",-11.212727483657504],["fødte",-11.21295851914793],["▁knappen",-11.212999479196208],["▁sjokk",-11.213001623126964],["▁off",-11.213045832571384],["▁spilleautomater",-11.213311059151923],["synet",-11.213864501430104],["▁intens",-11.21392370260471],["ole",-11.214331162578617],["stemningen",-11.214385082012596],["▁tegnet",-11.21443742225586],["▁budskap",-11.214901295288133],["oversikten",-11.214905042484746],["kvalifisert",-11.215019628747667],["▁sovjet",-11.215056503506746],["▁disposisjon",-11.215086746329511],["fortjent",-11.216002077467085],["▁premie",-11.216096292084645],["▁tyn",-11.21622465764438],["knappen",-11.216407737742385],["▁bergens",-11.216924233652726],["bert",-11.21741680093926],["roll",-11.217577468253989],["mming",-11.218266162100155],["▁oppskrifter",-11.218299357178196],["fingrene",-11.218332461543786],["▁øyet",-11.21833417880189],["rol",-11.218361503639764],["sion",-11.218739096412452],["fronten",-11.218952250634878],["▁fou",-11.218973852485048],["spørsmål",-11.219048133707512],["seksjon",-11.21913913852355],["▁hjul",-11.219504971160116],["▁halden",-11.21967155819951],["lam",-11.219765006191716],["menigheten",-11.220029838680697],["▁ukraina",-11.22011693149631],["havn",-11.220244444392224],["▁trent",-11.2202752293172],["arter",-11.220782817690926],["▁leketøy",-11.220789300147889],["vert",-11.220992159991315],["hvis",-11.2220060271504],["▁dekkes",-11.222058022073751],["båt",-11.22220523635032],["▁aksjon",-11.222258616684524],["led",-11.222605019209674],["▁arbeidsplassen",-11.222807214043977],["▁spekter",-11.223224966932737],["løypa",-11.223536821896303],["gunstig",-11.223712921092323],["▁opplegg",-11.224008136350085],["cho",-11.224268966872526],["dramatisk",-11.224362512776658],["▁billett",-11.224405981959492],["verdier",-11.224745091974343],["familien",-11.224756071528306],["trusler",-11.224773874794996],["▁heste",-11.2248415653999],["foss",-11.225180748473354],["vendig",-11.225301108688814],["samfunnet",-11.225361402679171],["▁egypt",-11.225698553464364],["▁forutsett",-11.225785403247809],["part",-11.225823444598229],["▁kake",-11.225848045251126],["▁forfattere",-11.22594356539388],["bud",-11.226204411541756],["kamera",-11.226216845824482],["holmen",-11.226274645835652],["▁malt",-11.22679824930963],["boks",-11.227591571170606],["▁foss",-11.228054071298658],["▁ind",-11.228254210725398],["stø",-11.228336836851923],["▁ofre",-11.228865209224455],["begrensninger",-11.229265105243288],["port",-11.22939104773723],["alternativet",-11.229805744991983],["▁oppløsning",-11.229881962507632],["prøver",-11.229951496745874],["kreft",-11.230185234725877],["▁fløy",-11.230340026297082],["▁rettferdig",-11.230403688900102],["elv",-11.230422014920356],["▁vitamin",-11.230786662979948],["funksjonshemmede",-11.230902250838293],["konflikter",-11.230983520895055],["flertallet",-11.231029902473594],["ventil",-11.231062143252457],["▁jag",-11.231638848682843],["▁gjøvik",-11.231910756948032],["punktene",-11.232043178410844],["▁vinden",-11.23243315921584],["periode",-11.232458168745056],["fylling",-11.233013866021524],["por",-11.23304674934654],["graf",-11.2334136784676],["▁dødsfall",-11.233553622416649],["▁dukke",-11.233832891954163],["▁utroskap",-11.23422150114276],["▁observasjon",-11.234275296092234],["▁kollega",-11.234322758444554],["margin",-11.234590320671554],["▁fortsett",-11.2349430324133],["▁trivsel",-11.235346022026686],["▁kongsberg",-11.235388326020152],["tveit",-11.235944740601616],["anmeldelser",-11.235998307605598],["▁open",-11.236029597309306],["økonomi",-11.236346248717345],["▁lillestrøm",-11.236463667144877],["fleksibel",-11.236620968700672],["▁nyhetsbrev",-11.236686470324084],["▁signal",-11.236841130754598],["▁voldtekt",-11.236931308889003],["▁søkemotor",-11.237045049106705],["▁finale",-11.237209424150503],["idrett",-11.237243182808507],["▁banker",-11.23741700021426],["▁maler",-11.237786762236942],["▁overta",-11.23790326253606],["right",-11.238362995079829],["▁strømmen",-11.23872757622492],["board",-11.238772457596834],["varme",-11.238873324179956],["nyttige",-11.23888491973355],["avdekke",-11.23905220817883],["korps",-11.239209200851304],["telling",-11.239633670712395],["▁prosjektering",-11.239653043844037],["universell",-11.239768149340154],["sjons",-11.2398117548561],["▁alders",-11.239861332461944],["▁sykefravær",-11.23995218816801],["▁ekstrem",-11.239963342137669],["estående",-11.24011093519149],["tvilsom",-11.24044573149221],["▁puste",-11.240594945846771],["såret",-11.24075289284744],["▁avslutning",-11.240830690946876],["brakt",-11.24143994417504],["▁asfalt",-11.24147086517776],["fant",-11.241472579222004],["▁tull",-11.241494357601164],["visning",-11.241871531311244],["ambisjoner",-11.241900691514871],["▁hå",-11.242052660151847],["endringen",-11.242127615279436],["▁sykehjem",-11.242379824719304],["punkter",-11.242612839062808],["▁bratt",-11.242890371401206],["linken",-11.242902037655703],["▁pedagogisk",-11.242948890121134],["konsernet",-11.243110137716998],["forferdelig",-11.24355012008985],["▁elisabeth",-11.24356897757667],["komponenter",-11.243594000426574],["tron",-11.24384115106913],["▁lam",-11.24437101004587],["beskyttet",-11.244383137508144],["▁verksted",-11.244640765762425],["lista",-11.24500529622384],["forskjellene",-11.24504461201683],["komité",-11.245221937171994],["produkt",-11.24546203018737],["seksjonen",-11.245655007430802],["▁europeisk",-11.245804549746673],["syk",-11.246098122180086],["▁bevissthet",-11.246247930903996],["forpliktende",-11.246287616604336],["pus",-11.246684366643535],["▁dyrt",-11.247169690297994],["prioritert",-11.24877672942656],["▁børs",-11.248785797807251],["vitenskap",-11.248876027973887],["▁mørket",-11.248892888133108],["▁vert",-11.24891947723491],["▁flor",-11.249403328699492],["statsbudsjettet",-11.249842231963832],["▁slupp",-11.249918352142975],["korn",-11.250118071505115],["▁scener",-11.250214610086934],["zen",-11.250276113035664],["mesterskapet",-11.25036512251347],["▁grunnskole",-11.250618957148156],["når",-11.250827133866991],["butikker",-11.251014607570855],["©",-11.251333037231802],["kinesiske",-11.251354285069617],["▁dybde",-11.251356573265111],["jan",-11.251479908295996],["▁good",-11.25222811428885],["pekte",-11.25240264572274],["aud",-11.252533970387296],["apparat",-11.252613850666055],["▁utøve",-11.252723169979452],["anserte",-11.252726206741574],["ande",-11.252726991062858],["sprut",-11.252900596643672],["▁konkurrere",-11.253022017826472],["oppgjør",-11.2530633226068],["▁konkurs",-11.25341835389046],["stiltak",-11.253748006407395],["oppbevare",-11.253773075712251],["▁rest",-11.253836255483902],["landslaget",-11.253863911757538],["plattformen",-11.254190387161415],["suppe",-11.25468846279266],["▁investering",-11.254743581123268],["▁mette",-11.254936162966262],["verdige",-11.255163789789664],["syke",-11.25544720650734],["▁utveksling",-11.2555852571934],["ala",-11.255703486542648],["▁anvendelse",-11.255862835628186],["▁logge",-11.255887127813176],["▁sveits",-11.256010060297031],["uff",-11.256012007024731],["▁skremm",-11.256131989270756],["ction",-11.256243197537891],["tex",-11.25628545470014],["▁åndelig",-11.25641187515378],["▁utrede",-11.256650797882536],["▁sov",-11.2566663267932],["▁rakk",-11.256956868771042],["▁stammer",-11.257065115981742],["finansiert",-11.257843567845542],["egen",-11.257847708748358],["personene",-11.257978691375415],["strekningen",-11.257980955321935],["arrester",-11.25804047555328],["▁rådgivning",-11.258957851629008],["kje",-11.25927032119518],["▁stue",-11.259384848329155],["museum",-11.259487723490398],["delene",-11.259623217917587],["gjerd",-11.259701676851174],["vitner",-11.259890359039542],["▁styrings",-11.259928581920462],["▁aktør",-11.260179754022232],["setninger",-11.260326232325092],["leiren",-11.26062529254122],["tegninger",-11.260659937788954],["▁tilpasning",-11.260771326472394],["▁stikke",-11.260812884426873],["forandret",-11.260821156239006],["▁drivstoff",-11.26082424914958],["▁patent",-11.260832144590893],["▁speil",-11.260849415721134],["▁toalett",-11.26113874693216],["▁avgjør",-11.261174740055932],["▁hydro",-11.261469969526477],["venner",-11.261507653576572],["anerkjent",-11.26154873468529],["ulf",-11.261945314278666],["standarden",-11.262029574684558],["fas",-11.262587482328634],["▁gravide",-11.262658063919062],["▁varighet",-11.262685216604952],["▁gjensidig",-11.262755569052944],["▁brett",-11.262809865187975],["▁fuktighet",-11.26319780831473],["▁venne",-11.26325014806742],["ød",-11.26330839327201],["aviser",-11.264384010010662],["partier",-11.26444524446456],["engasjere",-11.264577867281924],["▁arbeidsplass",-11.264779049208428],["▁potet",-11.265026984053009],["▁opplærings",-11.265030048219131],["berget",-11.265154153859356],["▁arbeidsliv",-11.265302168055916],["fellesskapet",-11.265576326811637],["drikk",-11.26576508322387],["sforhold",-11.2658139725263],["mun",-11.266399726701884],["zy",-11.26652853370163],["▁forlag",-11.266561184319974],["▁veterinær",-11.266761831314687],["▁head",-11.26679897156267],["fagfolk",-11.267068487803822],["▁reg",-11.2670804295579],["▁stortings",-11.2671255226346],["marked",-11.267279913151777],["koden",-11.267352609022764],["antas",-11.268065609908618],["skatt",-11.268299905018749],["▁fleksibilitet",-11.268304801717395],["oppdateringer",-11.268337541636315],["forsøk",-11.26837302547721],["eriksen",-11.268491134686856],["vid",-11.268742800582226],["▁vidar",-11.268787873992393],["omfanget",-11.268845772287326],["▁utbred",-11.268884326836211],["⁄",-11.2690858639923],["overføre",-11.269343788922422],["▁stranden",-11.26945467839484],["studert",-11.269491332105204],["▁mestring",-11.269566383419717],["brev",-11.270731551854098],["▁logo",-11.270757635726044],["▁utbetaling",-11.270761066362118],["▁høyst",-11.270955687949924],["ost",-11.270998783235704],["▁meny",-11.271355617904751],["isse",-11.271365819577303],["▁lokalsamfunn",-11.271449006587645],["verdiene",-11.271672140213354],["▁fangst",-11.271715314590663],["▁aktuell",-11.271814740818904],["rekke",-11.271982396339888],["▁yngste",-11.272080442361617],["nord",-11.27220331596908],["sens",-11.273132184312848],["godkjennes",-11.273261681864348],["ella",-11.274248296522314],["▁hekt",-11.274599675764188],["avgjørelser",-11.274710318643844],["egne",-11.274881829641965],["▁utførelse",-11.274927967420917],["lokk",-11.274994701329229],["▁koke",-11.275022844796656],["pul",-11.27516930593796],["▁comp",-11.2754885820822],["vennligst",-11.27570450485406],["opplegget",-11.275873686403056],["hevde",-11.276055324041383],["▁download",-11.276199066015389],["snøen",-11.27621754007643],["▁smarte",-11.276540208188392],["▁freds",-11.277152050401462],["▁kontaktannonse",-11.277462105501076],["▁herlige",-11.277503343881106],["istene",-11.27762197262069],["tech",-11.278102023683877],["▁fantasi",-11.278878125399414],["▁etikk",-11.278978374279164],["bringer",-11.27908984335377],["sida",-11.279223734071849],["stol",-11.279634802277732],["krysset",-11.280125542373732],["gress",-11.280153119615942],["snes",-11.280805839519177],["▁ankomst",-11.281206754766902],["▁virkelighet",-11.281231875767496],["dekning",-11.281319649748722],["▁konkurranser",-11.28154077200132],["▁win",-11.281590345023654],["shop",-11.281596692273878],["▁tåle",-11.282110486280905],["sprang",-11.282759131145156],["juridiske",-11.28280335235064],["bol",-11.28294145376802],["▁tegning",-11.283128463131469],["beskrivelsen",-11.283214064504593],["muskler",-11.283614905677483],["stjernen",-11.283626166823622],["▁nettleser",-11.28364833547617],["▁endel",-11.28399478222444],["gass",-11.284019117296864],["fyr",-11.284069794968287],["ografi",-11.284363138111988],["▁bemerke",-11.284486194274669],["cus",-11.28474103461771],["▁luksus",-11.284761554772135],["temaer",-11.284825745070556],["butikkene",-11.284871725956924],["▁opphør",-11.284958465367495],["light",-11.28520042366458],["vika",-11.285211890757534],["levd",-11.285510298443509],["rist",-11.2856638904261],["lås",-11.285664751900418],["▁fatt",-11.285930554966086],["▁debut",-11.285941474899552],["▁telt",-11.285945045486336],["▁hjemmel",-11.28613628220269],["kontrollert",-11.286494608284542],["sete",-11.28672536363432],["▁psykolog",-11.286758024066325],["smuligheter",-11.286815819911292],["bønder",-11.286915498220337],["kirke",-11.286973191531228],["samarbeid",-11.287108491415466],["▁brøt",-11.287363669822213],["kjel",-11.287426183489677],["▁voldsom",-11.287802503712069],["realisere",-11.28809193968064],["▁orgasme",-11.288270281881964],["▁borettslag",-11.288876519795918],["▁grave",-11.2891419721587],["▁lyden",-11.289159091015168],["▁symbol",-11.289176166272908],["stykket",-11.289204485149508],["▁entreprenør",-11.289228660825788],["fødselen",-11.289235080035246],["kus",-11.28930162385938],["▁formidling",-11.289597443494426],["▁artister",-11.289927860819294],["bredden",-11.290013420370542],["▁publi",-11.290211604667851],["▁krone",-11.290359963671447],["▁travel",-11.290752198248088],["kobling",-11.29077431871269],["kriteriene",-11.290945845570448],["ekte",-11.291008103843843],["pod",-11.291297894148746],["formelle",-11.291339831798451],["▁human",-11.291979111165686],["cra",-11.292710171966078],["▁kreativ",-11.29301955281317],["▁poly",-11.293788473213208],["ramme",-11.293887207564673],["▁spredning",-11.294012251511964],["øyvind",-11.294137224621362],["kal",-11.294479991192103],["▁utøver",-11.294740821032471],["▁modul",-11.29474812269594],["butikken",-11.294924537404068],["beste",-11.294941994167813],["▁drepe",-11.294945500202484],["sprosjekt",-11.295640810254016],["▁tredjepart",-11.295678784457309],["farten",-11.295811633485467],["brakte",-11.296091958927654],["hyggelige",-11.296307159041868],["▁matvarer",-11.296940996105375],["klubbens",-11.297082404964932],["▁introduksjon",-11.29732008134601],["▁bryllup",-11.29760886745962],["elin",-11.297655274969229],["asylsøkere",-11.297753734317826],["koordinator",-11.298006947852276],["▁tru",-11.298020474340618],["▁kontrast",-11.298322399544654],["▁eierskap",-11.298593428065391],["stoler",-11.298728827149665],["▁vektlegg",-11.298951602934752],["▁flørte",-11.29897879111662],["målinger",-11.299002908819284],["▁eple",-11.299064273225644],["▁moh",-11.299076439821006],["▁sannhet",-11.299162445778707],["▁oppbevaring",-11.299196595325345],["lei",-11.299327060407656],["▁brede",-11.2994076284184],["▁åpnings",-11.299680595332296],["ungdommene",-11.29978004817862],["usjon",-11.299857204548813],["▁inngrep",-11.299912390074557],["ement",-11.299917188724738],["▁kunstner",-11.30074527184485],["puss",-11.30090407091872],["fokus",-11.301006451878576],["▁sparebank",-11.301078100040025],["realistisk",-11.301145338760078],["gra",-11.301145621223244],["▁forbrukere",-11.301161190574506],["beløp",-11.302105567221393],["▁gevinst",-11.302134019101867],["døra",-11.302224493413666],["jern",-11.302390857017445],["▁prestasjon",-11.302448026369731],["▁asiatisk",-11.302546664135404],["т",-11.302917191188415],["piller",-11.30307175915088],["planer",-11.303115632918786],["▁trenge",-11.303187883289931],["▁tvang",-11.30368371979444],["▁bestill",-11.303780906737837],["deilige",-11.303967829842998],["arc",-11.304320421243176],["▁kam",-11.304599547631277],["▁manchester",-11.30466241074623],["beslutninger",-11.304742660263058],["▁slekt",-11.304743411704637],["▁antar",-11.304747666598852],["bukse",-11.304944084277968],["▁primær",-11.305050728409846],["▁stakk",-11.305085624906967],["▁vent",-11.305262352236852],["▁varsler",-11.305350844565345],["▁dømme",-11.305482731926116],["▁diabetes",-11.305760359308538],["▁call",-11.306092181630028],["▁moment",-11.306471077938715],["halsen",-11.306765989734496],["▁synge",-11.306951910182452],["▁hiv",-11.307134337592904],["troen",-11.307208829378148],["trivelig",-11.307219575924474],["spis",-11.307284928236],["▁forhandler",-11.307559588087212],["▁revolusjonen",-11.307726564713652],["▁hesten",-11.307746943768397],["▁umiddelbar",-11.307984978375126],["▁bensin",-11.308270248710624],["tennene",-11.308396083541766],["▁wa",-11.30889795860408],["▁gris",-11.308911628246811],["fare",-11.309277002842135],["andel",-11.309511033422408],["filen",-11.309799698993018],["▁james",-11.31056235180003],["vatnet",-11.310606147141703],["▁israelsk",-11.310798343486704],["span",-11.31085032341604],["▁regulering",-11.311272400159792],["oversatt",-11.31136126893993],["▁elva",-11.311491889224335],["▁sjef",-11.31163193450488],["▁liverpool",-11.311633047123603],["allige",-11.31175657879214],["▁handlingsplan",-11.311883160072965],["hjul",-11.312520104429304],["▁bas",-11.312727265871237],["einere",-11.312731865845404],["▁siv",-11.31300145689919],["▁konsulent",-11.313064114608686],["instruks",-11.313130803357572],["▁ipad",-11.313204030079056],["kål",-11.3132154269023],["amb",-11.313487370570304],["▁petroleums",-11.313568382683371],["diskusjonen",-11.313634044142496],["tvert",-11.313937952954152],["låst",-11.314002734138391],["datter",-11.314199086096972],["krig",-11.314344619627596],["▁hanne",-11.314511273385015],["leiligheter",-11.314573505574272],["▁lenke",-11.314765039554713],["lind",-11.31476647443606],["turister",-11.314966769717126],["senga",-11.315051453380915],["rull",-11.315729771021902],["▁diagnose",-11.315839212637652],["▁søket",-11.316006726424565],["▁tannlege",-11.31607989237158],
[...]
